{
  "version": "1.0",
  "truncation": null,
  "padding": null,
  "added_tokens": [
    {
      "id": 0,
      "content": "<unk>",
      "single_word": false,
      "lstrip": false,
      "rstrip": false,
      "normalized": false,
      "special": true
    },
    {
      "id": 1,
      "content": "<bos>",
      "single_word": false,
      "lstrip": false,
      "rstrip": false,
      "normalized": false,
      "special": true
    },
    {
      "id": 2,
      "content": "<eos>",
      "single_word": false,
      "lstrip": false,
      "rstrip": false,
      "normalized": false,
      "special": true
    },
    {
      "id": 3,
      "content": "<pad>",
      "single_word": false,
      "lstrip": false,
      "rstrip": false,
      "normalized": false,
      "special": true
    }
  ],
  "normalizer": null,
  "pre_tokenizer": {
    "type": "Whitespace"
  },
  "post_processor": null,
  "decoder": null,
  "model": {
    "type": "BPE",
    "dropout": null,
    "unk_token": "<unk>",
    "continuing_subword_prefix": null,
    "end_of_word_suffix": null,
    "fuse_unk": false,
    "byte_fallback": false,
    "ignore_merges": false,
    "vocab": {
      "<unk>": 0,
      "<bos>": 1,
      "<eos>": 2,
      "<pad>": 3,
      "!": 4,
      "\"": 5,
      "#": 6,
      "'": 7,
      "(": 8,
      ")": 9,
      ",": 10,
      "-": 11,
      ".": 12,
      ":": 13,
      ";": 14,
      "?": 15,
      "«": 16,
      "»": 17,
      "а": 18,
      "б": 19,
      "в": 20,
      "г": 21,
      "д": 22,
      "е": 23,
      "ж": 24,
      "з": 25,
      "и": 26,
      "й": 27,
      "к": 28,
      "л": 29,
      "м": 30,
      "н": 31,
      "о": 32,
      "п": 33,
      "р": 34,
      "с": 35,
      "т": 36,
      "у": 37,
      "ф": 38,
      "х": 39,
      "ц": 40,
      "ч": 41,
      "ш": 42,
      "щ": 43,
      "ъ": 44,
      "ы": 45,
      "ь": 46,
      "э": 47,
      "ю": 48,
      "я": 49,
      "—": 50,
      "…": 51,
      "ст": 52,
      "но": 53,
      "на": 54,
      "ни": 55,
      "ве": 56,
      "ал": 57,
      "не": 58,
      "то": 59,
      "ра": 60,
      "ка": 61,
      "по": 62,
      "во": 63,
      "ре": 64,
      "ро": 65,
      "го": 66,
      "ла": 67,
      "ли": 68,
      "ко": 69,
      "ло": 70,
      "ны": 71,
      "за": 72,
      "де": 73,
      "ми": 74,
      "до": 75,
      "ме": 76,
      "се": 77,
      "да": 78,
      "ле": 79,
      "ри": 80,
      "сь": 81,
      "те": 82,
      "ва": 83,
      "ть": 84,
      "та": 85,
      "##": 86,
      "ся": 87,
      "со": 88,
      "ви": 89,
      "как": 90,
      "мо": 91,
      "его": 92,
      "ру": 93,
      "ти": 94,
      "что": 95,
      "бы": 96,
      "он": 97,
      "ди": 98,
      "про": 99,
      "ки": 100,
      "ду": 101,
      "ну": 102,
      "из": 103,
      "ды": 104,
      "бе": 105,
      "али": 106,
      "че": 107,
      "ры": 108,
      "сво": 109,
      "ста": 110,
      "от": 111,
      "пе": 112,
      "же": 113,
      "све": 114,
      "ше": 115,
      "сть": 116,
      "бо": 117,
      "ты": 118,
      "ши": 119,
      "му": 120,
      "ль": 121,
      "лу": 122,
      "це": 123,
      "ние": 124,
      "са": 125,
      "при": 126,
      "ск": 127,
      "об": 128,
      "лю": 129,
      "сти": 130,
      "ма": 131,
      "си": 132,
      "жи": 133,
      "сер": 134,
      "вы": 135,
      "ча": 136,
      "нны": 137,
      "####": 138,
      "ля": 139,
      "серд": 140,
      "сло": 141,
      "сто": 142,
      "вно": 143,
      "ня": 144,
      "ала": 145,
      "ния": 146,
      "хо": 147,
      "их": 148,
      "гда": 149,
      "нно": 150,
      "раз": 151,
      "жды": 152,
      "ца": 153,
      "мы": 154,
      "чи": 155,
      "вз": 156,
      "пол": 157,
      "стра": 158,
      "ша": 159,
      "нь": 160,
      "ву": 161,
      "шь": 162,
      "лы": 163,
      "лся": 164,
      "пу": 165,
      "бу": 166,
      "зна": 167,
      "сердце": 168,
      "га": 169,
      "где": 170,
      "когда": 171,
      "это": 172,
      "чу": 173,
      "ще": 174,
      "меч": 175,
      "ные": 176,
      "ку": 177,
      "она": 178,
      "ска": 179,
      "ту": 180,
      "су": 181,
      "ря": 182,
      "вь": 183,
      "вст": 184,
      "щи": 185,
      "пре": 186,
      "словно": 187,
      "ный": 188,
      "ной": 189,
      "ет": 190,
      "од": 191,
      "рас": 192,
      "зе": 193,
      "ало": 194,
      "ная": 195,
      "том": 196,
      "ско": 197,
      "под": 198,
      "па": 199,
      "гла": 200,
      "тре": 201,
      "свет": 202,
      "дру": 203,
      "иск": 204,
      "би": 205,
      "все": 206,
      "жиз": 207,
      "воз": 208,
      "лишь": 209,
      "кото": 210,
      "сте": 211,
      "вши": 212,
      "але": 213,
      "ний": 214,
      "лась": 215,
      "лись": 216,
      "нный": 217,
      "ство": 218,
      "цве": 219,
      "кажды": 220,
      "сла": 221,
      "сме": 222,
      "вал": 223,
      "мя": 224,
      "ных": 225,
      "кра": 226,
      "кры": 227,
      "одна": 228,
      "вол": 229,
      "они": 230,
      "гу": 231,
      "мир": 232,
      "был": 233,
      "аль": 234,
      "зы": 235,
      "ник": 236,
      "неж": 237,
      "стве": 238,
      "ались": 239,
      "дь": 240,
      "пи": 241,
      "свои": 242,
      "вер": 243,
      "радо": 244,
      "жа": 245,
      "каж": 246,
      "ей": 247,
      "вая": 248,
      "каждый": 249,
      "сле": 250,
      "пере": 251,
      "кру": 252,
      "тво": 253,
      "ного": 254,
      "вет": 255,
      "часть": 256,
      "ги": 257,
      "ба": 258,
      "произ": 259,
      "вече": 260,
      "ща": 261,
      "нове": 262,
      "сердца": 263,
      "зо": 264,
      "вре": 265,
      "ным": 266,
      "глаза": 267,
      "тся": 268,
      "спо": 269,
      "зве": 270,
      "зда": 271,
      "мени": 272,
      "кой": 273,
      "ха": 274,
      "сол": 275,
      "ться": 276,
      "ке": 277,
      "гля": 278,
      "однажды": 279,
      "оста": 280,
      "чь": 281,
      "люб": 282,
      "ней": 283,
      "ним": 284,
      "наде": 285,
      "ался": 286,
      "тель": 287,
      "счасть": 288,
      "жизни": 289,
      "дере": 290,
      "так": 291,
      "зву": 292,
      "нные": 293,
      "виде": 294,
      "доб": 295,
      "чувст": 296,
      "без": 297,
      "сли": 298,
      "небе": 299,
      "шу": 300,
      "ис": 301,
      "тай": 302,
      "муд": 303,
      "мечта": 304,
      "хи": 305,
      "дя": 306,
      "голо": 307,
      "нии": 308,
      "любви": 309,
      "######": 310,
      "##########": 311,
      "ном": 312,
      "нием": 313,
      "друг": 314,
      "ром": 315,
      "сту": 316,
      "пле": 317,
      "стью": 318,
      "каждо": 319,
      "нце": 320,
      "глу": 321,
      "вшись": 322,
      "ком": 323,
      ".##########": 324,
      "которы": 325,
      "вновь": 326,
      "пы": 327,
      "просто": 328,
      "сре": 329,
      "стран": 330,
      "лько": 331,
      "ющи": 332,
      "тя": 333,
      "мечты": 334,
      "любо": 335,
      "зем": 336,
      "тер": 337,
      "шеп": 338,
      "лось": 339,
      "встре": 340,
      "волше": 341,
      "алек": 342,
      "волшеб": 343,
      "алась": 344,
      "вали": 345,
      "кто": 346,
      "ное": 347,
      "ную": 348,
      "еди": 349,
      "среди": 350,
      "дох": 351,
      "тил": 352,
      "зи": 353,
      "напол": 354,
      "жил": 355,
      "таи": 356,
      "сы": 357,
      "дол": 358,
      "ему": 359,
      "сты": 360,
      "соб": 361,
      "слова": 362,
      "мне": 363,
      "произне": 364,
      "ски": 365,
      "вели": 366,
      "только": 367,
      "звз": 368,
      "алексе": 369,
      "леса": 370,
      "оди": 371,
      "стал": 372,
      "приро": 373,
      "ходи": 374,
      "ства": 375,
      "них": 376,
      "юно": 377,
      "нной": 378,
      "тро": 379,
      "алось": 380,
      "щу": 381,
      "слу": 382,
      "пра": 383,
      "нная": 384,
      "рец": 385,
      "веч": 386,
      "гори": 387,
      "лес": 388,
      "пер": 389,
      "бя": 390,
      "стре": 391,
      "вать": 392,
      "тра": 393,
      "своих": 394,
      "мой": 395,
      "стари": 396,
      "нима": 397,
      "созда": 398,
      "было": 399,
      "ков": 400,
      "судь": 401,
      "гра": 402,
      "дре": 403,
      "счастье": 404,
      "жизнь": 405,
      "вс": 406,
      "ясь": 407,
      "была": 408,
      "свою": 409,
      "сия": 410,
      "нач": 411,
      "алексей": 412,
      "взгля": 413,
      "небо": 414,
      "вдох": 415,
      "ге": 416,
      "кро": 417,
      "вечер": 418,
      "чтобы": 419,
      "улы": 420,
      "мг": 421,
      "гру": 422,
      "тал": 423,
      "любовь": 424,
      "него": 425,
      "ус": 426,
      "исти": 427,
      "вот": 428,
      "хра": 429,
      "нул": 430,
      "печ": 431,
      "ют": 432,
      "обре": 433,
      "чело": 434,
      "кий": 435,
      "нных": 436,
      "увиде": 437,
      "стоя": 438,
      "нстве": 439,
      "смо": 440,
      "каз": 441,
      "род": 442,
      "звез": 443,
      "той": 444,
      "пред": 445,
      "трен": 446,
      "забы": 447,
      "заб": 448,
      "жд": 449,
      "рой": 450,
      "вя": 451,
      "дух": 452,
      "вля": 453,
      "реши": 454,
      "тени": 455,
      "жела": 456,
      "светом": 457,
      "улыб": 458,
      "буд": 459,
      "жда": 460,
      "тот": 461,
      "дом": 462,
      "дой": 463,
      "весе": 464,
      "жно": 465,
      "бере": 466,
      "вле": 467,
      "вдруг": 468,
      "пла": 469,
      "солнце": 470,
      "путь": 471,
      "бой": 472,
      "ными": 473,
      "ем": 474,
      "миг": 475,
      "нное": 476,
      "ветер": 477,
      "обла": 478,
      "шла": 479,
      "имени": 480,
      "откры": 481,
      "сказ": 482,
      "нулся": 483,
      "свер": 484,
      "знал": 485,
      "заме": 486,
      "пло": 487,
      "гово": 488,
      "цы": 489,
      "нем": 490,
      "день": 491,
      "свети": 492,
      "круг": 493,
      "своей": 494,
      "время": 495,
      "фе": 496,
      "мина": 497,
      "тали": 498,
      "».": 499,
      "неч": 500,
      "новы": 501,
      "мгнове": 502,
      "ности": 503,
      "поня": 504,
      "отве": 505,
      "хом": 506,
      "яр": 507,
      "мело": 508,
      "чуде": 509,
      "утрен": 510,
      "вра": 511,
      "будто": 512,
      "исто": 513,
      "души": 514,
      "таинстве": 515,
      "были": 516,
      "щая": 517,
      "шка": 518,
      "вокруг": 519,
      "над": 520,
      "пти": 521,
      "поло": 522,
      "мни": 523,
      "света": 524,
      "красо": 525,
      "жду": 526,
      "ется": 527,
      "этот": 528,
      "себе": 529,
      "небес": 530,
      "мелоди": 531,
      "для": 532,
      "теря": 533,
      "душа": 534,
      "радость": 535,
      "дая": 536,
      "тех": 537,
      "чувство": 538,
      "горе": 539,
      "душу": 540,
      "вала": 541,
      "старец": 542,
      "ких": 543,
      "неве": 544,
      "кие": 545,
      "дал": 546,
      "обра": 547,
      "жде": 548,
      "вдохнове": 549,
      "ках": 550,
      "мудро": 551,
      "душе": 552,
      "ях": 553,
      "мол": 554,
      "ожи": 555,
      "тем": 556,
      "шл": 557,
      "деревь": 558,
      "всегда": 559,
      "сно": 560,
      "дей": 561,
      "крас": 562,
      "нного": 563,
      "жет": 564,
      "бли": 565,
      "вос": 566,
      "ост": 567,
      "себя": 568,
      "ев": 569,
      "отра": 570,
      "скры": 571,
      "юноша": 572,
      "нным": 573,
      "звезды": 574,
      "шло": 575,
      "сила": 576,
      "шо": 577,
      "дож": 578,
      "стви": 579,
      "лей": 580,
      "трепе": 581,
      "вались": 582,
      "мра": 583,
      "вой": 584,
      "ками": 585,
      "древ": 586,
      "золо": 587,
      "дале": 588,
      "щих": 589,
      "одино": 590,
      "ночь": 591,
      "вско": 592,
      "вился": 593,
      "вес": 594,
      "фи": 595,
      "бро": 596,
      "поэ": 597,
      "подоб": 598,
      "гри": 599,
      "даже": 600,
      "ар": 601,
      "образ": 602,
      "ток": 603,
      "ощу": 604,
      "мира": 605,
      "сил": 606,
      "ким": 607,
      "бла": 608,
      "остави": 609,
      "рь": 610,
      "ность": 611,
      "тайны": 612,
      "три": 613,
      "своего": 614,
      "шел": 615,
      "клю": 616,
      "дет": 617,
      "наполни": 618,
      "воло": 619,
      "глуби": 620,
      "эти": 621,
      "стру": 622,
      "рая": 623,
      "меня": 624,
      "осо": 625,
      "дела": 626,
      "возь": 627,
      "произнесла": 628,
      "нула": 629,
      "дум": 630,
      "тень": 631,
      "нах": 632,
      "моло": 633,
      "быть": 634,
      "свобо": 635,
      "суще": 636,
      "мен": 637,
      "музы": 638,
      "звзды": 639,
      "види": 640,
      "юще": 641,
      "радости": 642,
      "неведо": 643,
      "мог": 644,
      "нец": 645,
      "вскоре": 646,
      "поки": 647,
      "храни": 648,
      "тов": 649,
      "тала": 650,
      "объ": 651,
      "стро": 652,
      "рый": 653,
      "ци": 654,
      "свой": 655,
      "сквозь": 656,
      "говори": 657,
      "этом": 658,
      "!»": 659,
      "дали": 660,
      "сили": 661,
      "звуч": 662,
      "вме": 663,
      "нув": 664,
      "зла": 665,
      "цветы": 666,
      "люби": 667,
      "ху": 668,
      "пес": 669,
      "произнес": 670,
      "деву": 671,
      "сами": 672,
      "увидел": 673,
      "тиши": 674,
      "ана": 675,
      "истори": 676,
      "вался": 677,
      "звезда": 678,
      "чем": 679,
      "поля": 680,
      "дни": 681,
      "окру": 682,
      "странник": 683,
      "пор": 684,
      "благо": 685,
      "кая": 686,
      "шая": 687,
      "каждое": 688,
      "ются": 689,
      "лег": 690,
      "природы": 691,
      "кре": 692,
      "печаль": 693,
      "нию": 694,
      "голос": 695,
      "которые": 696,
      "может": 697,
      "оку": 698,
      "челове": 699,
      "один": 700,
      "ее": 701,
      "надежды": 702,
      "искал": 703,
      "спомина": 704,
      "нном": 705,
      "ющий": 706,
      "бле": 707,
      "собой": 708,
      "цу": 709,
      "хва": 710,
      "верну": 711,
      "?»": 712,
      "ор": 713,
      "ветра": 714,
      "ями": 715,
      "нс": 716,
      "няя": 717,
      "хол": 718,
      "слы": 719,
      "зде": 720,
      "мире": 721,
      "смех": 722,
      "перед": 723,
      "глазах": 724,
      "боль": 725,
      "поко": 726,
      "лет": 727,
      "искус": 728,
      "который": 729,
      "если": 730,
      "сказа": 731,
      "вла": 732,
      "дер": 733,
      "зага": 734,
      "ству": 735,
      "времени": 736,
      "нему": 737,
      "там": 738,
      "ров": 739,
      "зон": 740,
      "воздух": 741,
      "тру": 742,
      "каждым": 743,
      "полон": 744,
      "каждом": 745,
      "нежно": 746,
      "тые": 747,
      "понима": 748,
      "пут": 749,
      "тила": 750,
      "искре": 751,
      "весен": 752,
      "свя": 753,
      "горизон": 754,
      "гр": 755,
      "ника": 756,
      "иска": 757,
      "ющие": 758,
      "пробу": 759,
      "перь": 760,
      "гре": 761,
      "стали": 762,
      "здесь": 763,
      "григори": 764,
      "ночи": 765,
      "ской": 766,
      "ан": 767,
      "най": 768,
      "счастья": 769,
      "казалось": 770,
      "цо": 771,
      "кар": 772,
      "яви": 773,
      "тебе": 774,
      "подобно": 775,
      "старик": 776,
      "сам": 777,
      "вший": 778,
      "мом": 779,
      "невиди": 780,
      "мый": 781,
      "мые": 782,
      "стар": 783,
      "спро": 784,
      "тума": 785,
      "людей": 786,
      "прекрас": 787,
      "ум": 788,
      "озе": 789,
      "обы": 790,
      "могу": 791,
      "светлы": 792,
      "шаг": 793,
      "нца": 794,
      "зака": 795,
      "нет": 796,
      "тели": 797,
      "вых": 798,
      "доро": 799,
      "подо": 800,
      "можно": 801,
      "свете": 802,
      "лья": 803,
      "ством": 804,
      "утра": 805,
      "пот": 806,
      "солнеч": 807,
      "чувства": 808,
      "воспомина": 809,
      "сим": 810,
      "мно": 811,
      "дра": 812,
      "чудес": 813,
      "долж": 814,
      "своим": 815,
      "тая": 816,
      "лик": 817,
      "судьбы": 818,
      "тия": 819,
      "нее": 820,
      "луна": 821,
      "анаста": 822,
      "реки": 823,
      "име": 824,
      "оби": 825,
      "соби": 826,
      "жен": 827,
      "щие": 828,
      "высо": 829,
      "мыс": 830,
      "сама": 831,
      "гор": 832,
      "васили": 833,
      "вые": 834,
      "мысли": 835,
      "чувствовал": 836,
      "вает": 837,
      "исче": 838,
      "буду": 839,
      "зло": 840,
      "нови": 841,
      "худож": 842,
      "лучи": 843,
      "вместе": 844,
      "ог": 845,
      "цвета": 846,
      "отпра": 847,
      "звзд": 848,
      "теперь": 849,
      "после": 850,
      "тихо": 851,
      "дели": 852,
      "полни": 853,
      "ниях": 854,
      "ваясь": 855,
      "григорий": 856,
      "начал": 857,
      "человече": 858,
      "танце": 859,
      "пришла": 860,
      "пря": 861,
      "которо": 862,
      "ню": 863,
      "бер": 864,
      "понял": 865,
      "стреми": 866,
      "зеле": 867,
      "объя": 868,
      "щий": 869,
      "снова": 870,
      "чер": 871,
      "люди": 872,
      "пока": 873,
      "просты": 874,
      "скра": 875,
      "уди": 876,
      "напо": 877,
      "добро": 878,
      "нную": 879,
      "уже": 880,
      "дерев": 881,
      "нулась": 882,
      "прошло": 883,
      "погру": 884,
      "дыха": 885,
      "деревьев": 886,
      "утро": 887,
      "лесу": 888,
      "пусти": 889,
      "произнс": 890,
      "зь": 891,
      "землю": 892,
      "масте": 893,
      "река": 894,
      "ешь": 895,
      "мая": 896,
      "пове": 897,
      "рома": 898,
      "им": 899,
      "шли": 900,
      "вспо": 901,
      "воды": 902,
      "ожида": 903,
      "того": 904,
      "стало": 905,
      "юный": 906,
      "звуки": 907,
      "уго": 908,
      "рова": 909,
      "смело": 910,
      "щего": 911,
      "потеря": 912,
      "шептали": 913,
      "нес": 914,
      "нуть": 915,
      "приз": 916,
      "ску": 917,
      "час": 918,
      "собра": 919,
      "ница": 920,
      "теше": 921,
      "вшие": 922,
      "между": 923,
      "руки": 924,
      "гар": 925,
      "вом": 926,
      "много": 927,
      "кло": 928,
      "жение": 929,
      "мле": 930,
      "этой": 931,
      "тепло": 932,
      "печали": 933,
      "мгновение": 934,
      "бескра": 935,
      "бескрай": 936,
      "зво": 937,
      "чей": 938,
      "нял": 939,
      "карти": 940,
      "вну": 941,
      "вало": 942,
      "взя": 943,
      "звали": 944,
      "уме": 945,
      "возвра": 946,
      "услы": 947,
      "рез": 948,
      "девушка": 949,
      "тебя": 950,
      "трево": 951,
      "однако": 952,
      "стя": 953,
      "гом": 954,
      "шал": 955,
      "глубо": 956,
      "солнца": 957,
      "пасту": 958,
      "дар": 959,
      "беско": 960,
      "василий": 961,
      "задум": 962,
      "нас": 963,
      "рази": 964,
      "кос": 965,
      "реаль": 966,
      "цветок": 967,
      "загадо": 968,
      "оставив": 969,
      "способ": 970,
      "бесконеч": 971,
      "сокро": 972,
      "полные": 973,
      "воро": 974,
      "больше": 975,
      "анастасия": 976,
      "дел": 977,
      "небеса": 978,
      "пыт": 979,
      "даль": 980,
      "ин": 981,
      "горо": 982,
      "ключе": 983,
      "кое": 984,
      "вое": 985,
      "расска": 986,
      "нако": 987,
      "смотре": 988,
      "кон": 989,
      "кри": 990,
      "теми": 991,
      "ответил": 992,
      "дор": 993,
      "шей": 994,
      "чудо": 995,
      "нок": 996,
      "поэт": 997,
      "соеди": 998,
      "одно": 999
    },
    "merges": [
      "с т",
      "н о",
      "н а",
      "н и",
      "в е",
      "а л",
      "н е",
      "т о",
      "р а",
      "к а",
      "п о",
      "в о",
      "р е",
      "р о",
      "г о",
      "л а",
      "л и",
      "к о",
      "л о",
      "н ы",
      "з а",
      "д е",
      "м и",
      "д о",
      "м е",
      "с е",
      "д а",
      "л е",
      "р и",
      "с ь",
      "т е",
      "в а",
      "т ь",
      "т а",
      "# #",
      "с я",
      "с о",
      "в и",
      "ка к",
      "м о",
      "е го",
      "р у",
      "т и",
      "ч то",
      "б ы",
      "о н",
      "д и",
      "п ро",
      "к и",
      "д у",
      "н у",
      "и з",
      "д ы",
      "б е",
      "ал и",
      "ч е",
      "р ы",
      "с во",
      "ст а",
      "о т",
      "п е",
      "ж е",
      "с ве",
      "ш е",
      "ст ь",
      "б о",
      "т ы",
      "ш и",
      "м у",
      "л ь",
      "л у",
      "ц е",
      "ни е",
      "с а",
      "п ри",
      "с к",
      "о б",
      "л ю",
      "ст и",
      "м а",
      "с и",
      "ж и",
      "се р",
      "в ы",
      "ч а",
      "н ны",
      "## ##",
      "л я",
      "сер д",
      "с ло",
      "ст о",
      "в но",
      "н я",
      "ал а",
      "ни я",
      "х о",
      "и х",
      "г да",
      "н но",
      "ра з",
      "ж ды",
      "ц а",
      "м ы",
      "ч и",
      "в з",
      "по л",
      "ст ра",
      "ш а",
      "н ь",
      "в у",
      "ш ь",
      "л ы",
      "л ся",
      "п у",
      "б у",
      "з на",
      "серд це",
      "г а",
      "г де",
      "ко гда",
      "э то",
      "ч у",
      "щ е",
      "ме ч",
      "ны е",
      "к у",
      "о на",
      "с ка",
      "т у",
      "с у",
      "р я",
      "в ь",
      "в ст",
      "щ и",
      "п ре",
      "сло вно",
      "ны й",
      "но й",
      "е т",
      "о д",
      "ра с",
      "з е",
      "ал о",
      "на я",
      "то м",
      "с ко",
      "по д",
      "п а",
      "г ла",
      "т ре",
      "све т",
      "д ру",
      "и ск",
      "б и",
      "в се",
      "ж из",
      "во з",
      "ли шь",
      "ко то",
      "ст е",
      "в ши",
      "ал е",
      "ни й",
      "ла сь",
      "ли сь",
      "нны й",
      "ст во",
      "ц ве",
      "ка жды",
      "с ла",
      "с ме",
      "в ал",
      "м я",
      "ны х",
      "к ра",
      "к ры",
      "од на",
      "во л",
      "о ни",
      "г у",
      "ми р",
      "бы л",
      "ал ь",
      "з ы",
      "ни к",
      "не ж",
      "ст ве",
      "али сь",
      "д ь",
      "п и",
      "сво и",
      "ве р",
      "ра до",
      "ж а",
      "ка ж",
      "е й",
      "ва я",
      "кажды й",
      "с ле",
      "пе ре",
      "к ру",
      "т во",
      "но го",
      "ве т",
      "ча сть",
      "г и",
      "б а",
      "про из",
      "ве че",
      "щ а",
      "но ве",
      "серд ца",
      "з о",
      "в ре",
      "ны м",
      "гла за",
      "т ся",
      "с по",
      "з ве",
      "з да",
      "ме ни",
      "ко й",
      "х а",
      "со л",
      "ть ся",
      "к е",
      "г ля",
      "одна жды",
      "о ста",
      "ч ь",
      "лю б",
      "не й",
      "ни м",
      "на де",
      "ал ся",
      "те ль",
      "с часть",
      "жиз ни",
      "де ре",
      "та к",
      "з ву",
      "нны е",
      "ви де",
      "до б",
      "чу вст",
      "бе з",
      "с ли",
      "не бе",
      "ш у",
      "и с",
      "та й",
      "му д",
      "меч та",
      "х и",
      "д я",
      "го ло",
      "ни и",
      "люб ви",
      "#### ##",
      "#### ######",
      "но м",
      "ние м",
      "дру г",
      "ро м",
      "ст у",
      "п ле",
      "сть ю",
      "каж до",
      "н це",
      "г лу",
      "вши сь",
      "ко м",
      ". ##########",
      "кото ры",
      "вно вь",
      "п ы",
      "про сто",
      "с ре",
      "стра н",
      "ль ко",
      "ю щи",
      "т я",
      "меч ты",
      "лю бо",
      "зе м",
      "те р",
      "ше п",
      "ло сь",
      "вст ре",
      "вол ше",
      "але к",
      "волше б",
      "ала сь",
      "в али",
      "к то",
      "но е",
      "ну ю",
      "е ди",
      "сре ди",
      "до х",
      "ти л",
      "з и",
      "на пол",
      "жи л",
      "та и",
      "с ы",
      "до л",
      "е му",
      "ст ы",
      "со б",
      "сло ва",
      "м не",
      "произ не",
      "с ки",
      "ве ли",
      "то лько",
      "з вз",
      "алек се",
      "ле са",
      "о ди",
      "ст ал",
      "при ро",
      "хо ди",
      "ст ва",
      "ни х",
      "ю но",
      "нно й",
      "т ро",
      "ало сь",
      "щ у",
      "с лу",
      "п ра",
      "н ная",
      "ре ц",
      "ве ч",
      "го ри",
      "ле с",
      "пе р",
      "б я",
      "ст ре",
      "ва ть",
      "т ра",
      "сво их",
      "мо й",
      "ста ри",
      "ни ма",
      "со зда",
      "бы ло",
      "ко в",
      "су дь",
      "г ра",
      "д ре",
      "счасть е",
      "жиз нь",
      "в с",
      "я сь",
      "бы ла",
      "сво ю",
      "си я",
      "на ч",
      "алексе й",
      "вз гля",
      "не бо",
      "в дох",
      "г е",
      "к ро",
      "вече р",
      "что бы",
      "у лы",
      "м г",
      "г ру",
      "т ал",
      "любо вь",
      "не го",
      "у с",
      "и сти",
      "во т",
      "х ра",
      "ну л",
      "пе ч",
      "ю т",
      "об ре",
      "че ло",
      "ки й",
      "нны х",
      "у виде",
      "сто я",
      "н стве",
      "с мо",
      "ка з",
      "ро д",
      "зве з",
      "то й",
      "пре д",
      "тре н",
      "за бы",
      "за б",
      "ж д",
      "ро й",
      "в я",
      "ду х",
      "в ля",
      "ре ши",
      "те ни",
      "же ла",
      "све том",
      "улы б",
      "бу д",
      "ж да",
      "то т",
      "до м",
      "до й",
      "ве се",
      "ж но",
      "бе ре",
      "в ле",
      "в друг",
      "п ла",
      "сол нце",
      "пу ть",
      "бо й",
      "ны ми",
      "е м",
      "ми г",
      "нно е",
      "ве тер",
      "об ла",
      "ш ла",
      "и мени",
      "от кры",
      "ска з",
      "ну лся",
      "све р",
      "зна л",
      "за ме",
      "п ло",
      "го во",
      "ц ы",
      "не м",
      "де нь",
      "све ти",
      "кру г",
      "сво ей",
      "вре мя",
      "ф е",
      "ми на",
      "т али",
      "» .",
      "не ч",
      "но вы",
      "мг нове",
      "но сти",
      "по ня",
      "от ве",
      "хо м",
      "я р",
      "ме ло",
      "чу де",
      "у трен",
      "в ра",
      "буд то",
      "и сто",
      "ду ши",
      "таи нстве",
      "бы ли",
      "ща я",
      "ш ка",
      "во круг",
      "на д",
      "п ти",
      "по ло",
      "м ни",
      "све та",
      "кра со",
      "ж ду",
      "ет ся",
      "это т",
      "се бе",
      "небе с",
      "мело ди",
      "д ля",
      "те ря",
      "ду ша",
      "радо сть",
      "да я",
      "те х",
      "чувст во",
      "го ре",
      "ду шу",
      "в ала",
      "ста рец",
      "ки х",
      "не ве",
      "ки е",
      "д ал",
      "об ра",
      "ж де",
      "вдох нове",
      "ка х",
      "муд ро",
      "ду ше",
      "я х",
      "мо л",
      "о жи",
      "те м",
      "ш л",
      "дере вь",
      "все гда",
      "с но",
      "де й",
      "к рас",
      "нно го",
      "же т",
      "б ли",
      "во с",
      "о ст",
      "се бя",
      "е в",
      "от ра",
      "ск ры",
      "юно ша",
      "нны м",
      "звез ды",
      "ш ло",
      "си ла",
      "ш о",
      "до ж",
      "ст ви",
      "ле й",
      "тре пе",
      "в ались",
      "м ра",
      "во й",
      "ка ми",
      "дре в",
      "зо ло",
      "д але",
      "щ их",
      "оди но",
      "но чь",
      "в ско",
      "ви лся",
      "ве с",
      "ф и",
      "б ро",
      "по э",
      "по доб",
      "г ри",
      "да же",
      "а р",
      "об раз",
      "то к",
      "о щу",
      "ми ра",
      "си л",
      "ки м",
      "б ла",
      "оста ви",
      "р ь",
      "но сть",
      "тай ны",
      "т ри",
      "сво его",
      "ше л",
      "к лю",
      "де т",
      "напол ни",
      "во ло",
      "глу би",
      "э ти",
      "ст ру",
      "ра я",
      "ме ня",
      "о со",
      "де ла",
      "воз ь",
      "произне сла",
      "ну ла",
      "ду м",
      "те нь",
      "на х",
      "мо ло",
      "бы ть",
      "сво бо",
      "су ще",
      "ме н",
      "му зы",
      "звз ды",
      "ви ди",
      "ю ще",
      "радо сти",
      "неве до",
      "мо г",
      "не ц",
      "вско ре",
      "по ки",
      "хра ни",
      "то в",
      "т ала",
      "об ъ",
      "ст ро",
      "ры й",
      "ц и",
      "сво й",
      "ск возь",
      "гово ри",
      "это м",
      "! »",
      "д али",
      "си ли",
      "зву ч",
      "в ме",
      "ну в",
      "з ла",
      "цве ты",
      "лю би",
      "х у",
      "пе с",
      "произне с",
      "де ву",
      "са ми",
      "увиде л",
      "ти ши",
      "а на",
      "исто ри",
      "вал ся",
      "зве зда",
      "че м",
      "по ля",
      "д ни",
      "о кру",
      "стран ник",
      "по р",
      "бла го",
      "ка я",
      "ша я",
      "каждо е",
      "ю тся",
      "ле г",
      "приро ды",
      "к ре",
      "печ аль",
      "ни ю",
      "голо с",
      "которы е",
      "мо жет",
      "о ку",
      "чело ве",
      "оди н",
      "е е",
      "наде жды",
      "иск ал",
      "спо мина",
      "нно м",
      "ющи й",
      "б ле",
      "со бой",
      "ц у",
      "х ва",
      "вер ну",
      "? »",
      "о р",
      "вет ра",
      "я ми",
      "н с",
      "ня я",
      "хо л",
      "с лы",
      "з де",
      "ми ре",
      "сме х",
      "пере д",
      "глаза х",
      "бо ль",
      "по ко",
      "ле т",
      "иск ус",
      "которы й",
      "е сли",
      "ска за",
      "в ла",
      "де р",
      "за га",
      "ст ву",
      "вре мени",
      "не му",
      "та м",
      "ро в",
      "з он",
      "воз дух",
      "т ру",
      "кажды м",
      "поло н",
      "каждо м",
      "неж но",
      "ты е",
      "по нима",
      "пу т",
      "ти ла",
      "иск ре",
      "весе н",
      "с вя",
      "гори зон",
      "г р",
      "ни ка",
      "и ска",
      "ющи е",
      "про бу",
      "пер ь",
      "г ре",
      "ст али",
      "зде сь",
      "гри гори",
      "но чи",
      "ско й",
      "а н",
      "на й",
      "счасть я",
      "каз алось",
      "ц о",
      "ка р",
      "я ви",
      "те бе",
      "подоб но",
      "стари к",
      "са м",
      "вши й",
      "мо м",
      "не види",
      "мы й",
      "мы е",
      "ста р",
      "с про",
      "ту ма",
      "лю дей",
      "пре крас",
      "у м",
      "о зе",
      "о бы",
      "мо гу",
      "свет лы",
      "ша г",
      "н ца",
      "за ка",
      "не т",
      "те ли",
      "вы х",
      "до ро",
      "по до",
      "мо жно",
      "све те",
      "ль я",
      "ство м",
      "у тра",
      "по т",
      "сол неч",
      "чувст ва",
      "во спомина",
      "си м",
      "м но",
      "д ра",
      "чуде с",
      "дол ж",
      "свои м",
      "та я",
      "ли к",
      "судь бы",
      "ти я",
      "не е",
      "лу на",
      "ана ста",
      "ре ки",
      "и ме",
      "об и",
      "со би",
      "же н",
      "щи е",
      "вы со",
      "мы с",
      "са ма",
      "го р",
      "ва сили",
      "вы е",
      "мы сли",
      "чувство вал",
      "ва ет",
      "ис че",
      "бу ду",
      "з ло",
      "но ви",
      "ху дож",
      "лу чи",
      "вме сте",
      "о г",
      "цве та",
      "от пра",
      "звз д",
      "те перь",
      "по сле",
      "ти хо",
      "де ли",
      "пол ни",
      "ния х",
      "вая сь",
      "григори й",
      "нач ал",
      "чело вече",
      "та нце",
      "при шла",
      "п ря",
      "кото ро",
      "н ю",
      "бе р",
      "поня л",
      "стре ми",
      "зе ле",
      "объ я",
      "щи й",
      "сно ва",
      "че р",
      "лю ди",
      "по ка",
      "про сты",
      "ск ра",
      "у ди",
      "на по",
      "доб ро",
      "н ную",
      "у же",
      "дере в",
      "ну лась",
      "про шло",
      "по гру",
      "ды ха",
      "деревь ев",
      "у тро",
      "ле су",
      "пу сти",
      "произ нс",
      "з ь",
      "зем лю",
      "ма сте",
      "ре ка",
      "е шь",
      "ма я",
      "по ве",
      "ро ма",
      "и м",
      "ш ли",
      "в спо",
      "во ды",
      "ожи да",
      "то го",
      "ст ало",
      "ю ный",
      "зву ки",
      "у го",
      "ро ва",
      "сме ло",
      "щ его",
      "по теря",
      "шеп тали",
      "не с",
      "ну ть",
      "при з",
      "ск у",
      "ча с",
      "соб ра",
      "ни ца",
      "те ше",
      "вши е",
      "ме жду",
      "ру ки",
      "га р",
      "во м",
      "м ного",
      "к ло",
      "же ние",
      "м ле",
      "это й",
      "те пло",
      "печ али",
      "мгнове ние",
      "бе скра",
      "бескра й",
      "з во",
      "че й",
      "ня л",
      "кар ти",
      "в ну",
      "в ало",
      "вз я",
      "з вали",
      "у ме",
      "воз вра",
      "ус лы",
      "ре з",
      "деву шка",
      "те бя",
      "тре во",
      "одна ко",
      "ст я",
      "го м",
      "ш ал",
      "глу бо",
      "сол нца",
      "па сту",
      "да р",
      "бе ско",
      "васили й",
      "за дум",
      "на с",
      "раз и",
      "ко с",
      "ре аль",
      "цве ток",
      "зага до",
      "остави в",
      "спо соб",
      "беско неч",
      "со кро",
      "пол ные",
      "во ро",
      "боль ше",
      "анаста сия",
      "де л",
      "небе са",
      "пы т",
      "д аль",
      "и н",
      "го ро",
      "клю че",
      "ко е",
      "во е",
      "рас ска",
      "на ко",
      "смо тре",
      "ко н",
      "к ри",
      "те ми",
      "отве тил",
      "до р",
      "ше й",
      "чу до",
      "но к",
      "поэ т",
      "со еди",
      "од но"
    ]
  }
}