{
  "version": "1.0",
  "truncation": null,
  "padding": null,
  "added_tokens": [
    {
      "id": 0,
      "content": "<unk>",
      "single_word": false,
      "lstrip": false,
      "rstrip": false,
      "normalized": false,
      "special": true
    },
    {
      "id": 1,
      "content": "<bos>",
      "single_word": false,
      "lstrip": false,
      "rstrip": false,
      "normalized": false,
      "special": true
    },
    {
      "id": 2,
      "content": "<eos>",
      "single_word": false,
      "lstrip": false,
      "rstrip": false,
      "normalized": false,
      "special": true
    },
    {
      "id": 3,
      "content": "<pad>",
      "single_word": false,
      "lstrip": false,
      "rstrip": false,
      "normalized": false,
      "special": true
    }
  ],
  "normalizer": null,
  "pre_tokenizer": {
    "type": "Whitespace"
  },
  "post_processor": null,
  "decoder": null,
  "model": {
    "type": "BPE",
    "dropout": null,
    "unk_token": "<unk>",
    "continuing_subword_prefix": null,
    "end_of_word_suffix": null,
    "fuse_unk": false,
    "byte_fallback": false,
    "ignore_merges": false,
    "vocab": {
      "<unk>": 0,
      "<bos>": 1,
      "<eos>": 2,
      "<pad>": 3,
      "!": 4,
      "\"": 5,
      "#": 6,
      "'": 7,
      "(": 8,
      ")": 9,
      "*": 10,
      "+": 11,
      ",": 12,
      "-": 13,
      ".": 14,
      "/": 15,
      "0": 16,
      "1": 17,
      "2": 18,
      "3": 19,
      "4": 20,
      "5": 21,
      "6": 22,
      "7": 23,
      "8": 24,
      "9": 25,
      ":": 26,
      ";": 27,
      "<": 28,
      "=": 29,
      ">": 30,
      "?": 31,
      "@": 32,
      "[": 33,
      "]": 34,
      "_": 35,
      "a": 36,
      "b": 37,
      "c": 38,
      "d": 39,
      "e": 40,
      "f": 41,
      "g": 42,
      "h": 43,
      "i": 44,
      "j": 45,
      "k": 46,
      "l": 47,
      "m": 48,
      "n": 49,
      "o": 50,
      "p": 51,
      "q": 52,
      "r": 53,
      "s": 54,
      "t": 55,
      "u": 56,
      "v": 57,
      "w": 58,
      "x": 59,
      "y": 60,
      "z": 61,
      "{": 62,
      "|": 63,
      "}": 64,
      "«": 65,
      "»": 66,
      "½": 67,
      "à": 68,
      "â": 69,
      "ä": 70,
      "ç": 71,
      "è": 72,
      "é": 73,
      "ê": 74,
      "ë": 75,
      "î": 76,
      "ï": 77,
      "ô": 78,
      "ö": 79,
      "ù": 80,
      "û": 81,
      "ü": 82,
      "œ": 83,
      "а": 84,
      "б": 85,
      "в": 86,
      "г": 87,
      "д": 88,
      "е": 89,
      "ж": 90,
      "з": 91,
      "и": 92,
      "й": 93,
      "к": 94,
      "л": 95,
      "м": 96,
      "н": 97,
      "о": 98,
      "п": 99,
      "р": 100,
      "с": 101,
      "т": 102,
      "у": 103,
      "ф": 104,
      "х": 105,
      "ц": 106,
      "ч": 107,
      "ш": 108,
      "щ": 109,
      "ъ": 110,
      "ы": 111,
      "ь": 112,
      "э": 113,
      "ю": 114,
      "я": 115,
      "ё": 116,
      "—": 117,
      "…": 118,
      "ст": 119,
      "на": 120,
      "но": 121,
      "ни": 122,
      "ра": 123,
      "не": 124,
      "по": 125,
      "ал": 126,
      "ве": 127,
      "то": 128,
      "во": 129,
      "ка": 130,
      "го": 131,
      "ре": 132,
      "ро": 133,
      "ко": 134,
      "ли": 135,
      "ла": 136,
      "ло": 137,
      "ны": 138,
      "де": 139,
      "за": 140,
      "ри": 141,
      "ми": 142,
      "ме": 143,
      "до": 144,
      "ле": 145,
      "да": 146,
      "се": 147,
      "те": 148,
      "ва": 149,
      "сь": 150,
      "ть": 151,
      "ся": 152,
      "та": 153,
      "мо": 154,
      "ви": 155,
      "ки": 156,
      "со": 157,
      "бы": 158,
      "его": 159,
      "ру": 160,
      "ти": 161,
      "ди": 162,
      "##": 163,
      "что": 164,
      "он": 165,
      "про": 166,
      "как": 167,
      "че": 168,
      "бе": 169,
      "ду": 170,
      "ну": 171,
      "из": 172,
      "от": 173,
      "пе": 174,
      "же": 175,
      "ль": 176,
      "бо": 177,
      "ста": 178,
      "ды": 179,
      "ры": 180,
      "ше": 181,
      "му": 182,
      "сво": 183,
      "али": 184,
      "при": 185,
      "ма": 186,
      "вы": 187,
      "ши": 188,
      "сти": 189,
      "ты": 190,
      "сть": 191,
      "са": 192,
      "об": 193,
      "лу": 194,
      "ча": 195,
      "ние": 196,
      "си": 197,
      "све": 198,
      "це": 199,
      "лю": 200,
      "сто": 201,
      "жи": 202,
      "ля": 203,
      "нны": 204,
      "ня": 205,
      "ск": 206,
      "хо": 207,
      "сер": 208,
      "чи": 209,
      "раз": 210,
      "ала": 211,
      "нно": 212,
      "ния": 213,
      "сло": 214,
      "пу": 215,
      "серд": 216,
      "ца": 217,
      "их": 218,
      "мы": 219,
      "вно": 220,
      "####": 221,
      "нь": 222,
      "га": 223,
      "гда": 224,
      "бу": 225,
      "ско": 226,
      "лся": 227,
      "ще": 228,
      "ша": 229,
      "ку": 230,
      "пре": 231,
      "зна": 232,
      "ву": 233,
      "су": 234,
      "ря": 235,
      "жды": 236,
      "ска": 237,
      "ту": 238,
      "стра": 239,
      "лы": 240,
      "шь": 241,
      "ет": 242,
      "вз": 243,
      "пол": 244,
      "это": 245,
      "когда": 246,
      "чу": 247,
      "па": 248,
      "ной": 249,
      "ные": 250,
      "пи": 251,
      "ный": 252,
      "щи": 253,
      "она": 254,
      "где": 255,
      "все": 256,
      "под": 257,
      "сердце": 258,
      "ство": 259,
      "вал": 260,
      "би": 261,
      "од": 262,
      "рас": 263,
      "дру": 264,
      "вь": 265,
      "меч": 266,
      "гла": 267,
      "зе": 268,
      "ная": 269,
      "том": 270,
      "кото": 271,
      "тре": 272,
      "але": 273,
      "сте": 274,
      "лись": 275,
      "воз": 276,
      "словно": 277,
      "ний": 278,
      "мя": 279,
      "ало": 280,
      "сла": 281,
      "гу": 282,
      "вши": 283,
      "свет": 284,
      "был": 285,
      "вст": 286,
      "ба": 287,
      "жа": 288,
      "лась": 289,
      "нный": 290,
      "сле": 291,
      "жиз": 292,
      "ги": 293,
      "вер": 294,
      "иск": 295,
      "лишь": 296,
      "сме": 297,
      "ных": 298,
      "ски": 299,
      "аль": 300,
      "дь": 301,
      "ей": 302,
      "пере": 303,
      "зы": 304,
      "тель": 305,
      "стве": 306,
      "кра": 307,
      "ного": 308,
      "ник": 309,
      "они": 310,
      "кры": 311,
      "ться": 312,
      "одна": 313,
      "кажды": 314,
      "вет": 315,
      "ха": 316,
      "вали": 317,
      "ным": 318,
      "вре": 319,
      "спо": 320,
      "мир": 321,
      "тся": 322,
      "свои": 323,
      "ке": 324,
      "вол": 325,
      "мне": 326,
      "ща": 327,
      "кой": 328,
      "вая": 329,
      "тво": 330,
      "жно": 331,
      "так": 332,
      "зо": 333,
      "кру": 334,
      "оста": 335,
      "гра": 336,
      "пра": 337,
      "чь": 338,
      "рь": 339,
      "без": 340,
      "ней": 341,
      "шу": 342,
      "нии": 343,
      "цве": 344,
      "радо": 345,
      "ним": 346,
      "ге": 347,
      "ком": 348,
      "сча": 349,
      "нные": 350,
      "лько": 351,
      "ему": 352,
      "сердца": 353,
      "каж": 354,
      "мени": 355,
      "каждый": 356,
      "гля": 357,
      "виде": 358,
      "произ": 359,
      "ром": 360,
      "нове": 361,
      "люб": 362,
      "наде": 363,
      "вече": 364,
      "доб": 365,
      "сту": 366,
      "хи": 367,
      "глаза": 368,
      "стью": 369,
      "сли": 370,
      "которы": 371,
      "дя": 372,
      "ался": 373,
      "пле": 374,
      "дол": 375,
      "слу": 376,
      "нием": 377,
      "тя": 378,
      "алек": 379,
      "ков": 380,
      "голо": 381,
      "ную": 382,
      "пы": 383,
      "сы": 384,
      "дре": 385,
      "сол": 386,
      "ном": 387,
      "ис": 388,
      "зве": 389,
      "зи": 390,
      "однажды": 391,
      "жизни": 392,
      "было": 393,
      "ходи": 394,
      "дере": 395,
      "тер": 396,
      "зда": 397,
      "друг": 398,
      "любо": 399,
      "бра": 400,
      "тай": 401,
      "глу": 402,
      "дом": 403,
      "кто": 404,
      "тро": 405,
      "любви": 406,
      "вели": 407,
      "пред": 408,
      "род": 409,
      "бя": 410,
      "сей": 411,
      "мой": 412,
      "зем": 413,
      "ства": 414,
      "зву": 415,
      "встре": 416,
      "сре": 417,
      "небе": 418,
      "нце": 419,
      "лось": 420,
      "ющи": 421,
      "ное": 422,
      "нной": 423,
      "ем": 424,
      "сты": 425,
      "счасть": 426,
      "вя": 427,
      "алась": 428,
      "еди": 429,
      "мечта": 430,
      "тра": 431,
      "только": 432,
      "вшись": 433,
      "вать": 434,
      "них": 435,
      "######": 436,
      "##########": 437,
      "вновь": 438,
      "каз": 439,
      "него": 440,
      "веч": 441,
      "тил": 442,
      ".##########": 443,
      "просто": 444,
      "была": 445,
      "ин": 446,
      "ались": 447,
      "слова": 448,
      "стал": 449,
      "шеп": 450,
      "среди": 451,
      "вле": 452,
      "жил": 453,
      "мечты": 454,
      "оди": 455,
      "гово": 456,
      "меня": 457,
      "нач": 458,
      "стоя": 459,
      "вой": 460,
      "нная": 461,
      "судь": 462,
      "кро": 463,
      "неж": 464,
      "стре": 465,
      "сказ": 466,
      "нных": 467,
      "ее": 468,
      "смо": 469,
      "нима": 470,
      "юно": 471,
      "алексей": 472,
      "напол": 473,
      "дох": 474,
      "шки": 475,
      "дой": 476,
      "ют": 477,
      "вля": 478,
      "стро": 479,
      "стран": 480,
      "бро": 481,
      "своих": 482,
      "щу": 483,
      "вот": 484,
      "волше": 485,
      "волшеб": 486,
      "были": 487,
      "чело": 488,
      "вра": 489,
      "свою": 490,
      "вс": 491,
      "цы": 492,
      "для": 493,
      "пер": 494,
      "хра": 495,
      "ус": 496,
      "нем": 497,
      "над": 498,
      "нул": 499,
      "произне": 500,
      "гру": 501,
      "жизнь": 502,
      "леса": 503,
      "стари": 504,
      "жде": 505,
      "ясь": 506,
      "кий": 507,
      "любовь": 508,
      "пла": 509,
      "ется": 510,
      "дро": 511,
      "звз": 512,
      "печ": 513,
      "взгля": 514,
      "той": 515,
      "исто": 516,
      "тал": 517,
      "бла": 518,
      "реши": 519,
      "время": 520,
      "три": 521,
      "гори": 522,
      "сия": 523,
      "дал": 524,
      "приро": 525,
      "день": 526,
      "тот": 527,
      "алось": 528,
      "жда": 529,
      "тем": 530,
      "бой": 531,
      "жду": 532,
      "увиде": 533,
      "рой": 534,
      "кре": 535,
      "исти": 536,
      "обра": 537,
      "заме": 538,
      "стви": 539,
      "ан": 540,
      "лес": 541,
      "небо": 542,
      "сно": 543,
      "ными": 544,
      "дей": 545,
      "своей": 546,
      "шка": 547,
      "нное": 548,
      "чтобы": 549,
      "шел": 550,
      "\".": 551,
      "ци": 552,
      "вечер": 553,
      "обре": 554,
      "тени": 555,
      "дет": 556,
      "мол": 557,
      "ской": 558,
      "мина": 559,
      "ев": 560,
      "мг": 561,
      "весе": 562,
      "бере": 563,
      "знал": 564,
      "поло": 565,
      "себе": 566,
      "созда": 567,
      "дух": 568,
      "улы": 569,
      "вдруг": 570,
      "жела": 571,
      "шла": 572,
      "фе": 573,
      "бли": 574,
      "вос": 575,
      "забы": 576,
      "трен": 577,
      "вдох": 578,
      "пло": 579,
      "ника": 580,
      "фи": 581,
      "счастье": 582,
      "звез": 583,
      "поэ": 584,
      "буд": 585,
      "вла": 586,
      "хом": 587,
      "нного": 588,
      "благо": 589,
      "чувст": 590,
      "цу": 591,
      "моло": 592,
      "обла": 593,
      "вала": 594,
      "горе": 595,
      "кие": 596,
      "путь": 597,
      "откры": 598,
      "ар": 599,
      "вско": 600,
      "светом": 601,
      "неч": 602,
      "себя": 603,
      "нулся": 604,
      "имени": 605,
      "новы": 606,
      "души": 607,
      "свер": 608,
      "мни": 609,
      "нным": 610,
      "вство": 611,
      "ких": 612,
      "жет": 613,
      "мен": 614,
      "поня": 615,
      "таин": 616,
      "улыб": 617,
      "прави": 618,
      "ветер": 619,
      "пушки": 620,
      "щая": 621,
      "лей": 622,
      "ожи": 623,
      "чем": 624,
      "солнце": 625,
      "миг": 626,
      "круг": 627,
      "образ": 628,
      "тали": 629,
      "дела": 630,
      "име": 631,
      "18": 632,
      "нет": 633,
      "жд": 634,
      "отве": 635,
      "яр": 636,
      "после": 637,
      "теря": 638,
      "свети": 639,
      "рец": 640,
      "мра": 641,
      "мог": 642,
      "им": 643,
      "ности": 644,
      "говори": 645,
      "ках": 646,
      "будто": 647,
      "нежно": 648,
      "шо": 649,
      "цо": 650,
      "чувство": 651,
      "ким": 652,
      "душа": 653,
      "быть": 654,
      "дер": 655,
      "шло": 656,
      "неве": 657,
      "этот": 658,
      "дая": 659,
      "нец": 660,
      "мгнове": 661,
      "ский": 662,
      "люби": 663,
      "ях": 664,
      "крас": 665,
      "истори": 666,
      "бле": 667,
      "душе": 668,
      "душу": 669,
      "утрен": 670,
      "».": 671,
      "сил": 672,
      "таинстве": 673,
      "тех": 674,
      "лет": 675,
      "челове": 676,
      "ор": 677,
      "боль": 678,
      "свобо": 679,
      "света": 680,
      "скры": 681,
      "чер": 682,
      "яви": 683,
      "нию": 684,
      "своего": 685,
      "объ": 686,
      "доро": 687,
      "всегда": 688,
      "вокруг": 689,
      "красо": 690,
      "само": 691,
      "перед": 692,
      "древ": 693,
      "мира": 694,
      "свя": 695,
      "сила": 696,
      "эти": 697,
      "ночь": 698,
      "слы": 699,
      "нови": 700,
      "небес": 701,
      "щих": 702,
      "ост": 703,
      "вались": 704,
      "дале": 705,
      "каждо": 706,
      "дум": 707,
      "мело": 708,
      "вало": 709,
      "ками": 710,
      "остави": 711,
      "чуде": 712,
      "рая": 713,
      "заб": 714,
      "собра": 715,
      "уже": 716,
      "пти": 717,
      "вме": 718,
      "жен": 719,
      "тов": 720,
      "зде": 721,
      "там": 722,
      "тень": 723,
      "тру": 724,
      "мудро": 725,
      "юноша": 726,
      "радость": 727,
      "даже": 728,
      "види": 729,
      "отра": 730,
      "клю": 731,
      "один": 732,
      "осо": 733,
      "гри": 734,
      "трепе": 735,
      "нее": 736,
      "мно": 737,
      "шл": 738,
      "жал": 739,
      "мелоди": 740,
      "кон": 741,
      "вался": 742,
      "храни": 743,
      "ству": 744,
      "может": 745,
      "дали": 746,
      "гре": 747,
      "ров": 748,
      "соб": 749,
      "деревь": 750,
      "которые": 751,
      "кая": 752,
      "вдохнове": 753,
      "звезды": 754,
      "ман": 755,
      "старец": 756,
      "нах": 757,
      "сам": 758,
      "юще": 759,
      "ток": 760,
      "дра": 761,
      "подоб": 762,
      "золо": 763,
      "свой": 764,
      "если": 765,
      "возь": 766,
      "сили": 767,
      "зло": 768,
      "который": 769,
      "ску": 770,
      "воло": 771,
      "дож": 772,
      "пор": 773,
      "нула": 774,
      "ского": 775,
      "кар": 776,
      "гор": 777,
      "ху": 778,
      "кого": 779,
      "этом": 780,
      "тебе": 781,
      "рый": 782,
      "суще": 783,
      "ются": 784,
      "нуть": 785,
      "лег": 786,
      "вскоре": 787,
      "шая": 788,
      "того": 789,
      "печаль": 790,
      "ность": 791,
      "хва": 792,
      "перь": 793,
      "окру": 794,
      "сказа": 795,
      "ощу": 796,
      "или": 797,
      "дни": 798,
      "каза": 799,
      "одино": 800,
      "ских": 801,
      "нном": 802,
      "пове": 803,
      "зла": 804,
      "спомина": 805,
      "ана": 806,
      ").": 807,
      "между": 808,
      "поки": 809,
      "вший": 810,
      "здесь": 811,
      "рез": 812,
      "увидел": 813,
      "воль": 814,
      "нас": 815,
      "поко": 816,
      "ум": 817,
      "пес": 818,
      "тайны": 819,
      "жу": 820,
      "вые": 821,
      "нув": 822,
      "ями": 823,
      "гро": 824,
      "сквозь": 825,
      "уме": 826,
      "вый": 827,
      "вых": 828,
      "бира": 829,
      "мире": 830,
      "зь": 831,
      "стру": 832,
      "глуби": 833,
      "сами": 834,
      "ющий": 835,
      "нему": 836,
      "времени": 837,
      "надежды": 838,
      "наполни": 839,
      "es": 840,
      "обы": 841,
      "тебя": 842,
      "неведо": 843,
      "радости": 844,
      "тала": 845,
      "ню": 846,
      "тели": 847,
      "пуга": 848,
      "буду": 849,
      "писа": 850,
      "звуч": 851,
      "мый": 852,
      "теперь": 853,
      "музы": 854,
      "деву": 855,
      "можно": 856,
      "обе": 857,
      "сказал": 858,
      "нов": 859,
      "могу": 860,
      "тиши": 861,
      "ством": 862,
      "!»": 863,
      "голос": 864,
      "произнес": 865,
      "звзды": 866,
      "поля": 867,
      "шли": 868,
      "час": 869,
      "игра": 870,
      "звезда": 871,
      "собой": 872,
      "спро": 873,
      "стали": 874,
      "нам": 875,
      "хот": 876,
      "вает": 877,
      "высо": 878,
      "кри": 879,
      "казалось": 880,
      "пря": 881,
      "воро": 882,
      "няя": 883,
      "произнесла": 884,
      "оку": 885,
      "шей": 886,
      "тые": 887,
      "людей": 888,
      "взя": 889,
      "глазах": 890,
      "дел": 891,
      "бур": 892,
      "вое": 893,
      "цветы": 894,
      "мые": 895,
      "фа": 896,
      "подо": 897,
      "вес": 898,
      "которо": 899,
      "понима": 900,
      "ющие": 901,
      "искал": 902,
      "ива": 903,
      "утра": 904,
      "лый": 905,
      "зон": 906,
      "ночи": 907,
      "воспомина": 908,
      "смех": 909,
      "нс": 910,
      "жение": 911,
      "друго": 912,
      "нную": 913,
      "своим": 914,
      "объя": 915,
      "продол": 916,
      "тия": 917,
      "искре": 918,
      "тая": 919,
      "возвра": 920,
      "каждое": 921,
      "мая": 922,
      "прекрас": 923,
      "ешь": 924,
      "добро": 925,
      "\",": 926,
      "искус": 927,
      "нако": 928,
      "сл": 929,
      "ветра": 930,
      "вместе": 931,
      "два": 932,
      "лучи": 933,
      "най": 934,
      "каждым": 935,
      "иска": 936,
      "сим": 937,
      "хол": 938,
      "вом": 939,
      "природы": 940,
      "пробу": 941,
      "воздух": 942,
      "кое": 943,
      "дар": 944,
      "мер": 945,
      "пусти": 946,
      "судьбы": 947,
      "тила": 948,
      "ниях": 949,
      "изве": 950,
      "щего": 951,
      "дерев": 952,
      "снова": 953,
      "кли": 954,
      "полон": 955,
      "весен": 956,
      "пот": 957,
      "чувства": 958,
      "нулась": 959,
      "странник": 960,
      "пугаче": 961,
      "кло": 962,
      "будет": 963,
      "?»": 964,
      "свете": 965,
      "стар": 966,
      "подобно": 967,
      "бога": 968,
      "ог": 969,
      "дели": 970,
      "счастья": 971,
      "оби": 972,
      "пут": 973,
      "мысли": 974,
      "прошло": 975,
      "щие": 976,
      "лья": 977,
      "сторо": 978,
      "дно": 979,
      "горизон": 980,
      "григори": 981,
      "зага": 982,
      "уго": 983,
      "много": 984,
      "долго": 985,
      "нца": 986,
      "шаг": 987,
      "город": 988,
      "стя": 989,
      "напо": 990,
      "однако": 991,
      "невиди": 992,
      "наконец": 993,
      "горо": 994,
      "холо": 995,
      "васили": 996,
      "ские": 997,
      "нами": 998,
      "щий": 999,
      "каждом": 1000,
      "человек": 1001,
      "тно": 1002,
      "рова": 1003,
      "люди": 1004,
      "две": 1005,
      "дать": 1006,
      "ница": 1007,
      "кня": 1008,
      "тихо": 1009,
      "дво": 1010,
      "поз": 1011,
      "ран": 1012,
      "ок": 1013,
      "en": 1014,
      "нял": 1015,
      "зака": 1016,
      "пока": 1017,
      "луч": 1018,
      "старик": 1019,
      "роди": 1020,
      "еще": 1021,
      "чая": 1022,
      "чувствовал": 1023,
      "бре": 1024,
      "вшие": 1025,
      "теше": 1026,
      "недо": 1027,
      "послед": 1028,
      "пись": 1029,
      "телей": 1030,
      "луна": 1031,
      "потеря": 1032,
      "реки": 1033,
      "пя": 1034,
      "рази": 1035,
      "отправи": 1036,
      "приз": 1037,
      "одно": 1038,
      "вну": 1039,
      "кам": 1040,
      "зави": 1041,
      "находи": 1042,
      "коло": 1043,
      "шал": 1044,
      "тами": 1045,
      "анаста": 1046,
      "ожида": 1047,
      "стреми": 1048,
      "ваясь": 1049,
      "рома": 1050,
      "чей": 1051,
      "глубо": 1052,
      "озе": 1053,
      "судьба": 1054,
      "?\"": 1055,
      "стало": 1056,
      "поэт": 1057,
      "пыт": 1058,
      "начал": 1059,
      "таи": 1060,
      "руки": 1061,
      "полни": 1062,
      "ники": 1063,
      "всех": 1064,
      "смотре": 1065,
      "этой": 1066,
      "солнеч": 1067,
      "цар": 1068,
      "есть": 1069,
      "шего": 1070,
      "зеле": 1071,
      "землю": 1072,
      "кла": 1073,
      "исче": 1074,
      "вым": 1075,
      "боле": 1076,
      "лых": 1077,
      "печа": 1078,
      "погру": 1079,
      "смело": 1080,
      "теля": 1081,
      "уди": 1082,
      "ii": 1083,
      "гото": 1084,
      "учи": 1085,
      "вспо": 1086,
      "гар": 1087,
      "дли": 1088,
      "понял": 1089,
      "мяте": 1090,
      "сама": 1091,
      "време": 1092,
      "пушкин": 1093,
      "рус": 1094,
      "услы": 1095,
      "григорий": 1096,
      "дыха": 1097,
      "стей": 1098,
      "сколько": 1099,
      "чудес": 1100,
      "мудре": 1101,
      "шептали": 1102,
      "един": 1103,
      "сов": 1104,
      "ступи": 1105,
      "бер": 1106,
      "дня": 1107,
      "обо": 1108,
      "тый": 1109,
      "вого": 1110,
      "пришла": 1111,
      "которой": 1112,
      "ходя": 1113,
      "человече": 1114,
      "зя": 1115,
      "сен": 1116,
      "смы": 1117,
      "рай": 1118,
      "просты": 1119,
      "утро": 1120,
      "даль": 1121,
      "вся": 1122,
      "дил": 1123,
      "мину": 1124,
      "собира": 1125,
      "стья": 1126,
      "нности": 1127,
      "тив": 1128,
      "больше": 1129,
      "ними": 1130,
      "теле": 1131,
      "лесу": 1132,
      "мле": 1133,
      "нными": 1134,
      "сви": 1135,
      "воды": 1136,
      "тельно": 1137,
      "носи": 1138,
      "дви": 1139,
      "которых": 1140,
      "слуша": 1141,
      "тать": 1142,
      "мом": 1143,
      "карти": 1144,
      "силу": 1145,
      "худож": 1146,
      "лик": 1147,
      "оде": 1148,
      "мых": 1149,
      "de": 1150,
      "вто": 1151,
      "нес": 1152,
      "звзд": 1153,
      "деревьев": 1154,
      "танце": 1155,
      "лые": 1156,
      "сом": 1157,
      "печали": 1158,
      "способ": 1159,
      "поро": 1160,
      "дне": 1161,
      "юный": 1162,
      "произнс": 1163,
      "зу": 1164,
      "нувшись": 1165,
      "река": 1166,
      "валась": 1167,
      "стала": 1168,
      "расска": 1169,
      "слов": 1170,
      "кни": 1171,
      "звуки": 1172,
      "сея": 1173,
      "смер": 1174,
      "доч": 1175,
      "коле": 1176,
      "моя": 1177,
      "ниями": 1178,
      "гом": 1179,
      "рую": 1180,
      "соеди": 1181,
      "ключе": 1182,
      "re": 1183,
      "тол": 1184,
      "ом": 1185,
      "слав": 1186,
      "жила": 1187,
      "через": 1188,
      "ников": 1189,
      "следу": 1190,
      "бед": 1191,
      "тился": 1192,
      "тых": 1193,
      "тепло": 1194,
      "пис": 1195,
      "лицо": 1196,
      "памя": 1197,
      "уста": 1198,
      "чего": 1199,
      "помни": 1200,
      "сон": 1201,
      "задум": 1202,
      "полные": 1203,
      "лом": 1204,
      "масте": 1205,
      "дор": 1206,
      "возможно": 1207,
      "on": 1208,
      "мгновение": 1209,
      "нье": 1210,
      "спе": 1211,
      "яс": 1212,
      "оставив": 1213,
      "спа": 1214,
      "кос": 1215,
      "жить": 1216,
      "маги": 1217,
      "небеса": 1218,
      "трево": 1219,
      "ская": 1220,
      "тут": 1221,
      "лой": 1222,
      "покры": 1223,
      "сокро": 1224,
      "знать": 1225,
      "солнца": 1226,
      "холод": 1227,
      "ведь": 1228,
      "преда": 1229,
      "вич": 1230,
      "беск": 1231,
      "чал": 1232,
      "бескрай": 1233,
      "селе": 1234,
      "гие": 1235,
      "лица": 1236,
      "оты": 1237,
      "охва": 1238,
      "рила": 1239,
      "василий": 1240,
      "вспомни": 1241,
      "чай": 1242,
      "разд": 1243,
      "нок": 1244,
      "мое": 1245,
      "кова": 1246,
      "беско": 1247,
      "земли": 1248,
      "воск": 1249,
      "взгляд": 1250,
      "ском": 1251,
      "звали": 1252,
      "арте": 1253,
      "скло": 1254,
      "страх": 1255,
      "реаль": 1256,
      "цвет": 1257,
      "друж": 1258,
      "бес": 1259,
      "внима": 1260,
      "ших": 1261,
      "бесконеч": 1262,
      "!\"": 1263,
      "честве": 1264,
      "цветок": 1265,
      "девушка": 1266,
      "анастасия": 1267,
      "душ": 1268,
      "le": 1269,
      "прав": 1270,
      "17": 1271,
      "зре": 1272,
      "тр": 1273,
      "этого": 1274,
      "дами": 1275,
      "кор": 1276,
      ".\"": 1277,
      "спросил": 1278,
      "глазами": 1279,
      "вод": 1280,
      "чет": 1281,
      "нность": 1282,
      "пути": 1283,
      "тогда": 1284,
      "ющих": 1285,
      "тому": 1286,
      "мале": 1287,
      "тор": 1288,
      "лая": 1289,
      "стихи": 1290,
      "мрач": 1291,
      "более": 1292,
      "нить": 1293,
      "рил": 1294,
      "вляя": 1295,
      "дней": 1296,
      "отвеч": 1297,
      "муд": 1298,
      "чудо": 1299,
      "ющая": 1300,
      "друга": 1301,
      "вших": 1302,
      "рк": 1303,
      "вую": 1304,
      "жество": 1305,
      "настоя": 1306,
      "ou": 1307,
      "свое": 1308,
      "песни": 1309,
      "ответ": 1310,
      "тан": 1311,
      "силь": 1312,
      "станови": 1313,
      "восто": 1314,
      "щей": 1315,
      "куда": 1316,
      "держа": 1317,
      "раб": 1318,
      "наполня": 1319,
      "пасту": 1320,
      "кол": 1321,
      "an": 1322,
      "ваться": 1323,
      "взо": 1324,
      "безмол": 1325,
      "несколько": 1326,
      "рить": 1327,
      "след": 1328,
      "творе": 1329,
      "гармо": 1330,
      "мыс": 1331,
      "вшая": 1332,
      "стави": 1333,
      "краю": 1334,
      "рос": 1335,
      "малень": 1336,
      "оно": 1337,
      "вопро": 1338,
      "тить": 1339,
      "серде": 1340,
      "истории": 1341,
      "чина": 1342,
      "ответил": 1343,
      "ницы": 1344,
      "музыка": 1345,
      "жали": 1346,
      "начали": 1347,
      "сверка": 1348,
      "дов": 1349,
      "коро": 1350,
      "сне": 1351,
      "кими": 1352,
      "кля": 1353,
      "потом": 1354,
      "бри": 1355,
      "мари": 1356,
      "et": 1357,
      "нья": 1358,
      "сверк": 1359,
      "укры": 1360,
      "ноч": 1361,
      "мор": 1362,
      "нежные": 1363,
      "уж": 1364,
      "поле": 1365,
      "испы": 1366,
      "возник": 1367,
      "фран": 1368,
      "момен": 1369,
      "шептал": 1370,
      "стремле": 1371,
      "182": 1372,
      "стой": 1373,
      "ствие": 1374,
      "нт": 1375,
      "побе": 1376,
      "рах": 1377,
      "всем": 1378,
      "эту": 1379,
      "народ": 1380,
      "лов": 1381,
      "мую": 1382,
      "ого": 1383,
      "прон": 1384,
      "природа": 1385,
      "подня": 1386,
      "ходит": 1387,
      "существо": 1388,
      "призра": 1389,
      "тм": 1390,
      "фор": 1391,
      "вам": 1392,
      "веде": 1393,
      "183": 1394,
      "нм": 1395,
      "останови": 1396,
      "ции": 1397,
      "нена": 1398,
      "пушкина": 1399,
      "мыш": 1400,
      "глядя": 1401,
      "слад": 1402,
      "тери": 1403,
      "луча": 1404,
      "стать": 1405,
      "никогда": 1406,
      "незна": 1407,
      "зная": 1408,
      "ждой": 1409,
      "оте": 1410,
      "заметил": 1411,
      "шед": 1412,
      "силы": 1413,
      "каждая": 1414,
      "пал": 1415,
      "искрен": 1416,
      "своем": 1417,
      "собстве": 1418,
      "молодой": 1419,
      "покой": 1420,
      "страха": 1421,
      "напомина": 1422,
      "мий": 1423,
      "сердцах": 1424,
      "лице": 1425,
      "дости": 1426,
      "помо": 1427,
      "витель": 1428,
      "решил": 1429,
      "петро": 1430,
      "вернулся": 1431,
      "вдохновения": 1432,
      "место": 1433,
      "телем": 1434,
      "вне": 1435,
      "следо": 1436,
      "жала": 1437,
      "пости": 1438,
      "давно": 1439,
      "жения": 1440,
      "страда": 1441,
      "веко": 1442,
      "путеше": 1443,
      "берегу": 1444,
      "тума": 1445,
      "мимо": 1446,
      "счаст": 1447,
      "нулись": 1448,
      "дома": 1449,
      "вас": 1450,
      "пусть": 1451,
      "ai": 1452,
      "ющей": 1453,
      "угол": 1454,
      "куз": 1455,
      "тон": 1456,
      "гне": 1457,
      "мере": 1458,
      "приня": 1459,
      "води": 1460,
      "земле": 1461,
      "имя": 1462,
      "загадоч": 1463,
      "дах": 1464,
      "которая": 1465,
      "шой": 1466,
      "обще": 1467,
      "сму": 1468,
      "рами": 1469,
      "почувствовал": 1470,
      "вари": 1471,
      "трепет": 1472,
      "зва": 1473,
      "чно": 1474,
      "ужа": 1475,
      "жили": 1476,
      "сии": 1477,
      "мяг": 1478,
      "извест": 1479,
      "рассказы": 1480,
      "тяже": 1481,
      "ья": 1482,
      "рей": 1483,
      "дам": 1484,
      "поры": 1485,
      "богат": 1486,
      "госу": 1487,
      "рые": 1488,
      "тих": 1489,
      "арома": 1490,
      "блю": 1491,
      "оча": 1492,
      "мудрость": 1493,
      "ющее": 1494,
      "бело": 1495,
      "старый": 1496,
      "мым": 1497,
      "вдохновение": 1498,
      "»,": 1499,
      "чит": 1500,
      "руках": 1501,
      "нося": 1502,
      "ником": 1503,
      "щую": 1504,
      "тиче": 1505,
      "qu": 1506,
      "старо": 1507,
      "всю": 1508,
      "ощутил": 1509,
      "вен": 1510,
      "валось": 1511,
      "дую": 1512,
      "спокой": 1513,
      "сере": 1514,
      "тихи": 1515,
      "вздох": 1516,
      "граф": 1517,
      "осве": 1518,
      "марь": 1519,
      "тря": 1520,
      "сокрови": 1521,
      "сколь": 1522,
      "луга": 1523,
      "хоро": 1524,
      "начина": 1525,
      "пора": 1526,
      "заве": 1527,
      "наро": 1528,
      "пой": 1529,
      "самой": 1530,
      "эта": 1531,
      "бою": 1532,
      "жив": 1533,
      "нежный": 1534,
      "порой": 1535,
      "осозна": 1536,
      "руку": 1537,
      "зел": 1538,
      "остался": 1539,
      "ех": 1540,
      "часто": 1541,
      "мечтал": 1542,
      "ющим": 1543,
      "едине": 1544,
      "сем": 1545,
      "позна": 1546,
      "гов": 1547,
      "ским": 1548,
      "птица": 1549,
      "утренний": 1550,
      "нули": 1551,
      "верши": 1552,
      "казался": 1553,
      "тей": 1554,
      "верь": 1555,
      "неу": 1556,
      "мои": 1557,
      "мрак": 1558,
      "спле": 1559,
      "навсегда": 1560,
      "радостью": 1561,
      "ген": 1562,
      "фо": 1563,
      "er": 1564,
      "надежда": 1565,
      "надежд": 1566,
      "любопыт": 1567,
      "явилась": 1568,
      "ез": 1569,
      "сказала": 1570,
      "кап": 1571,
      "чка": 1572,
      "котором": 1573,
      "чудеса": 1574,
      "радост": 1575,
      "огонь": 1576,
      "оче": 1577,
      "встретил": 1578,
      "встрети": 1579,
      "уни": 1580,
      "найти": 1581,
      "раду": 1582,
      "нат": 1583,
      "некогда": 1584,
      "лг": 1585,
      "полу": 1586,
      "облака": 1587,
      "гр": 1588,
      "зерк": 1589,
      "бря": 1590,
      "кую": 1591,
      "рит": 1592,
      "разгово": 1593,
      "женщи": 1594,
      "ший": 1595,
      "берега": 1596,
      "чки": 1597,
      "шпот": 1598,
      "дала": 1599,
      "весь": 1600,
      "шку": 1601,
      "мечтах": 1602,
      "ручь": 1603,
      "дума": 1604,
      "мудрости": 1605,
      "другой": 1606,
      "защи": 1607,
      "нимал": 1608,
      "улыбкой": 1609,
      "смея": 1610,
      "ходил": 1611,
      "одной": 1612,
      "замер": 1613,
      "вел": 1614,
      "рых": 1615,
      "воспоминания": 1616,
      "рядом": 1617,
      "воздухе": 1618,
      "новым": 1619,
      "будь": 1620,
      "пан": 1621,
      "превра": 1622,
      "заполни": 1623,
      "испол": 1624,
      "встреча": 1625,
      "наш": 1626,
      "деревья": 1627,
      "каме": 1628,
      "свету": 1629,
      "жит": 1630,
      "бесе": 1631,
      "небосво": 1632,
      "страсти": 1633,
      "отвечал": 1634,
      "востор": 1635,
      "жало": 1636,
      "тах": 1637,
      "скую": 1638,
      "),": 1639,
      "слово": 1640,
      "друзь": 1641,
      "решился": 1642,
      "расцве": 1643,
      "надеждой": 1644,
      "желание": 1645,
      "могла": 1646,
      "простран": 1647,
      "ходили": 1648,
      "тел": 1649,
      "артемий": 1650,
      "восклик": 1651,
      "йте": 1652,
      "твой": 1653,
      "боро": 1654,
      "мастер": 1655,
      "вечно": 1656,
      "новые": 1657,
      "мов": 1658,
      "сомне": 1659,
      "безд": 1660,
      "пугачев": 1661,
      "сан": 1662,
      "влади": 1663,
      "оза": 1664,
      "щем": 1665,
      "волны": 1666,
      "услыша": 1667,
      "поме": 1668,
      "пришл": 1669,
      "старца": 1670,
      "художник": 1671,
      "бытия": 1672,
      "сосе": 1673,
      "согла": 1674,
      "щее": 1675,
      "бь": 1676,
      "которого": 1677,
      "необы": 1678,
      "князь": 1679,
      "вере": 1680,
      "твор": 1681,
      "одинокий": 1682,
      "величестве": 1683,
      "приключе": 1684,
      "полно": 1685,
      "отправился": 1686,
      "леген": 1687,
      "обня": 1688,
      "обрел": 1689,
      "нару": 1690,
      "ответила": 1691,
      "заблу": 1692,
      "мель": 1693,
      "ступ": 1694,
      "размыш": 1695,
      "мест": 1696,
      "моли": 1697,
      "дить": 1698,
      "слава": 1699,
      "ствия": 1700,
      "прежде": 1701,
      "печат": 1702,
      "выми": 1703,
      "плы": 1704,
      "вается": 1705,
      "путник": 1706,
      "искра": 1707,
      "должен": 1708,
      "зам": 1709,
      "рок": 1710,
      "сра": 1711,
      "чали": 1712,
      "разу": 1713,
      "столь": 1714,
      "волне": 1715,
      "нечто": 1716,
      "ил": 1717,
      "нью": 1718,
      "которое": 1719,
      "множество": 1720,
      "зали": 1721,
      "дело": 1722,
      "вной": 1723,
      "голову": 1724,
      "горь": 1725,
      "откро": 1726,
      "горя": 1727,
      "тие": 1728,
      "продолжал": 1729,
      "стоял": 1730,
      "казы": 1731,
      "глаз": 1732,
      "мечтаний": 1733,
      "осе": 1734,
      "искри": 1735,
      "тка": 1736,
      "скор": 1737,
      "гая": 1738,
      "взор": 1739,
      "остро": 1740,
      "шее": 1741,
      "осталась": 1742,
      "наблю": 1743,
      "грани": 1744,
      "гли": 1745,
      "ближе": 1746,
      "волшебство": 1747,
      "прия": 1748,
      "каждую": 1749,
      "явля": 1750,
      "говорили": 1751,
      "зри": 1752,
      "проби": 1753,
      "которую": 1754,
      "анна": 1755,
      "воре": 1756,
      "нному": 1757,
      "туман": 1758,
      "словами": 1759,
      "преле": 1760,
      "алы": 1761,
      "смотря": 1762,
      "успе": 1763,
      "явился": 1764,
      "говорил": 1765,
      "чему": 1766,
      "мелодия": 1767,
      "осознал": 1768,
      "сердцем": 1769,
      "чный": 1770,
      "лен": 1771,
      "озера": 1772,
      "своему": 1773,
      "чные": 1774,
      "пода": 1775,
      "сталь": 1776,
      "птицы": 1777,
      "тий": 1778,
      "стани": 1779,
      "чувств": 1780,
      "перепле": 1781,
      "ино": 1782,
      "хов": 1783,
      "вания": 1784,
      "забве": 1785,
      "вли": 1786,
      "новой": 1787,
      "вышел": 1788,
      "волосы": 1789,
      "испыта": 1790,
      "ит": 1791,
      "бор": 1792,
      "части": 1793,
      "клина": 1794,
      "привы": 1795,
      "тьму": 1796,
      "храня": 1797,
      "свом": 1798,
      "хоть": 1799,
      "цветами": 1800,
      "ред": 1801,
      "гим": 1802,
      "очарова": 1803,
      "мило": 1804,
      "смотри": 1805,
      "решимо": 1806,
      "измени": 1807,
      "цветов": 1808,
      "ваются": 1809,
      "сове": 1810,
      "федор": 1811,
      "став": 1812,
      "восхи": 1813,
      "заж": 1814,
      "узна": 1815,
      "вар": 1816,
      "ющего": 1817,
      "ченный": 1818,
      "могли": 1819,
      "запи": 1820,
      "правля": 1821,
      "начала": 1822,
      "древних": 1823,
      "проти": 1824,
      "живо": 1825,
      "креп": 1826,
      "стихот": 1827,
      "светила": 1828,
      "двери": 1829,
      "вица": 1830,
      "величи": 1831,
      "своими": 1832,
      "самом": 1833,
      "коль": 1834,
      "суе": 1835,
      "написа": 1836,
      "счастли": 1837,
      "ниям": 1838,
      "геро": 1839,
      "делать": 1840,
      "звучал": 1841,
      "la": 1842,
      "ото": 1843,
      "думал": 1844,
      "гна": 1845,
      "гло": 1846,
      "наполне": 1847,
      "этих": 1848,
      "дыхание": 1849,
      "щим": 1850,
      "одо": 1851,
      "алексан": 1852,
      "человека": 1853,
      "сут": 1854,
      "всего": 1855,
      "скажи": 1856,
      "чества": 1857,
      "полная": 1858,
      "ств": 1859,
      "бен": 1860,
      "броше": 1861,
      "слыш": 1862,
      "il": 1863,
      "годы": 1864,
      "вспомнил": 1865,
      "духом": 1866,
      "мани": 1867,
      "ждал": 1868,
      "моей": 1869,
      "заклина": 1870,
      "мого": 1871,
      "клони": 1872,
      "тались": 1873,
      "искры": 1874,
      "разве": 1875,
      "прости": 1876,
      "пуска": 1877,
      "ход": 1878,
      "призна": 1879,
      "луны": 1880,
      "мелодии": 1881,
      "ут": 1882,
      "язы": 1883,
      "сны": 1884,
      "цвету": 1885,
      "долж": 1886,
      "ибо": 1887,
      "рам": 1888,
      "крыль": 1889
    },
    "merges": [
      "с т",
      "н а",
      "н о",
      "н и",
      "р а",
      "н е",
      "п о",
      "а л",
      "в е",
      "т о",
      "в о",
      "к а",
      "г о",
      "р е",
      "р о",
      "к о",
      "л и",
      "л а",
      "л о",
      "н ы",
      "д е",
      "з а",
      "р и",
      "м и",
      "м е",
      "д о",
      "л е",
      "д а",
      "с е",
      "т е",
      "в а",
      "с ь",
      "т ь",
      "с я",
      "т а",
      "м о",
      "в и",
      "к и",
      "с о",
      "б ы",
      "е го",
      "р у",
      "т и",
      "д и",
      "# #",
      "ч то",
      "о н",
      "п ро",
      "ка к",
      "ч е",
      "б е",
      "д у",
      "н у",
      "и з",
      "о т",
      "п е",
      "ж е",
      "л ь",
      "б о",
      "ст а",
      "д ы",
      "р ы",
      "ш е",
      "м у",
      "с во",
      "ал и",
      "п ри",
      "м а",
      "в ы",
      "ш и",
      "ст и",
      "т ы",
      "ст ь",
      "с а",
      "о б",
      "л у",
      "ч а",
      "ни е",
      "с и",
      "с ве",
      "ц е",
      "л ю",
      "ст о",
      "ж и",
      "л я",
      "н ны",
      "н я",
      "с к",
      "х о",
      "се р",
      "ч и",
      "ра з",
      "ал а",
      "н но",
      "ни я",
      "с ло",
      "п у",
      "сер д",
      "ц а",
      "и х",
      "м ы",
      "в но",
      "## ##",
      "н ь",
      "г а",
      "г да",
      "б у",
      "с ко",
      "л ся",
      "щ е",
      "ш а",
      "к у",
      "п ре",
      "з на",
      "в у",
      "с у",
      "р я",
      "ж ды",
      "с ка",
      "т у",
      "ст ра",
      "л ы",
      "ш ь",
      "е т",
      "в з",
      "по л",
      "э то",
      "ко гда",
      "ч у",
      "п а",
      "но й",
      "ны е",
      "п и",
      "ны й",
      "щ и",
      "о на",
      "г де",
      "в се",
      "по д",
      "серд це",
      "ст во",
      "в ал",
      "б и",
      "о д",
      "ра с",
      "д ру",
      "в ь",
      "ме ч",
      "г ла",
      "з е",
      "на я",
      "то м",
      "ко то",
      "т ре",
      "ал е",
      "ст е",
      "ли сь",
      "во з",
      "сло вно",
      "ни й",
      "м я",
      "ал о",
      "с ла",
      "г у",
      "в ши",
      "све т",
      "бы л",
      "в ст",
      "б а",
      "ж а",
      "ла сь",
      "нны й",
      "с ле",
      "ж из",
      "г и",
      "ве р",
      "и ск",
      "ли шь",
      "с ме",
      "ны х",
      "с ки",
      "ал ь",
      "д ь",
      "е й",
      "пе ре",
      "з ы",
      "те ль",
      "ст ве",
      "к ра",
      "но го",
      "ни к",
      "о ни",
      "к ры",
      "ть ся",
      "од на",
      "ка жды",
      "ве т",
      "х а",
      "в али",
      "ны м",
      "в ре",
      "с по",
      "ми р",
      "т ся",
      "сво и",
      "к е",
      "во л",
      "м не",
      "щ а",
      "ко й",
      "ва я",
      "т во",
      "ж но",
      "та к",
      "з о",
      "к ру",
      "о ста",
      "г ра",
      "п ра",
      "ч ь",
      "р ь",
      "бе з",
      "не й",
      "ш у",
      "ни и",
      "ц ве",
      "ра до",
      "ни м",
      "г е",
      "ко м",
      "с ча",
      "нны е",
      "ль ко",
      "е му",
      "серд ца",
      "ка ж",
      "ме ни",
      "кажды й",
      "г ля",
      "ви де",
      "про из",
      "ро м",
      "но ве",
      "лю б",
      "на де",
      "ве че",
      "до б",
      "ст у",
      "х и",
      "гла за",
      "сть ю",
      "с ли",
      "кото ры",
      "д я",
      "ал ся",
      "п ле",
      "до л",
      "с лу",
      "ние м",
      "т я",
      "але к",
      "ко в",
      "го ло",
      "ну ю",
      "п ы",
      "с ы",
      "д ре",
      "со л",
      "но м",
      "и с",
      "з ве",
      "з и",
      "одна жды",
      "жиз ни",
      "бы ло",
      "хо ди",
      "де ре",
      "те р",
      "з да",
      "дру г",
      "лю бо",
      "б ра",
      "та й",
      "г лу",
      "до м",
      "к то",
      "т ро",
      "люб ви",
      "ве ли",
      "пре д",
      "ро д",
      "б я",
      "се й",
      "мо й",
      "зе м",
      "ст ва",
      "з ву",
      "вст ре",
      "с ре",
      "не бе",
      "н це",
      "ло сь",
      "ю щи",
      "но е",
      "нно й",
      "е м",
      "ст ы",
      "сча сть",
      "в я",
      "ала сь",
      "е ди",
      "меч та",
      "т ра",
      "то лько",
      "вши сь",
      "ва ть",
      "ни х",
      "#### ##",
      "#### ######",
      "вно вь",
      "ка з",
      "не го",
      "ве ч",
      "ти л",
      ". ##########",
      "про сто",
      "бы ла",
      "и н",
      "али сь",
      "сло ва",
      "ст ал",
      "ше п",
      "сре ди",
      "в ле",
      "жи л",
      "меч ты",
      "о ди",
      "го во",
      "ме ня",
      "на ч",
      "сто я",
      "во й",
      "н ная",
      "су дь",
      "к ро",
      "не ж",
      "ст ре",
      "ска з",
      "нны х",
      "е е",
      "с мо",
      "ни ма",
      "ю но",
      "алек сей",
      "на пол",
      "до х",
      "ш ки",
      "до й",
      "ю т",
      "в ля",
      "ст ро",
      "стра н",
      "б ро",
      "сво их",
      "щ у",
      "во т",
      "вол ше",
      "волше б",
      "бы ли",
      "че ло",
      "в ра",
      "сво ю",
      "в с",
      "ц ы",
      "д ля",
      "пе р",
      "х ра",
      "у с",
      "не м",
      "на д",
      "ну л",
      "произ не",
      "г ру",
      "жиз нь",
      "ле са",
      "ста ри",
      "ж де",
      "я сь",
      "ки й",
      "любо вь",
      "п ла",
      "ет ся",
      "д ро",
      "з вз",
      "пе ч",
      "вз гля",
      "то й",
      "и сто",
      "т ал",
      "б ла",
      "ре ши",
      "вре мя",
      "т ри",
      "го ри",
      "си я",
      "д ал",
      "при ро",
      "де нь",
      "то т",
      "ало сь",
      "ж да",
      "те м",
      "бо й",
      "ж ду",
      "у виде",
      "ро й",
      "к ре",
      "и сти",
      "об ра",
      "за ме",
      "ст ви",
      "а н",
      "ле с",
      "не бо",
      "с но",
      "ны ми",
      "де й",
      "сво ей",
      "ш ка",
      "нно е",
      "что бы",
      "ше л",
      "\" .",
      "ц и",
      "вече р",
      "об ре",
      "те ни",
      "де т",
      "мо л",
      "ско й",
      "ми на",
      "е в",
      "м г",
      "ве се",
      "бе ре",
      "зна л",
      "по ло",
      "се бе",
      "со зда",
      "ду х",
      "у лы",
      "в друг",
      "же ла",
      "ш ла",
      "ф е",
      "б ли",
      "во с",
      "за бы",
      "тре н",
      "в дох",
      "п ло",
      "ни ка",
      "ф и",
      "счасть е",
      "зве з",
      "по э",
      "бу д",
      "в ла",
      "хо м",
      "нно го",
      "бла го",
      "чу вст",
      "ц у",
      "мо ло",
      "об ла",
      "в ала",
      "го ре",
      "ки е",
      "пу ть",
      "от кры",
      "а р",
      "в ско",
      "све том",
      "не ч",
      "се бя",
      "ну лся",
      "и мени",
      "но вы",
      "ду ши",
      "све р",
      "м ни",
      "нны м",
      "в ство",
      "ки х",
      "же т",
      "ме н",
      "по ня",
      "та ин",
      "улы б",
      "пра ви",
      "ве тер",
      "пу шки",
      "ща я",
      "ле й",
      "о жи",
      "че м",
      "сол нце",
      "ми г",
      "кру г",
      "об раз",
      "т али",
      "де ла",
      "и ме",
      "1 8",
      "не т",
      "ж д",
      "от ве",
      "я р",
      "по сле",
      "те ря",
      "све ти",
      "ре ц",
      "м ра",
      "мо г",
      "и м",
      "но сти",
      "гово ри",
      "ка х",
      "буд то",
      "не жно",
      "ш о",
      "ц о",
      "чу вство",
      "ки м",
      "ду ша",
      "бы ть",
      "де р",
      "ш ло",
      "не ве",
      "это т",
      "да я",
      "не ц",
      "мг нове",
      "ски й",
      "лю би",
      "я х",
      "к рас",
      "исто ри",
      "б ле",
      "ду ше",
      "ду шу",
      "у трен",
      "» .",
      "си л",
      "таин стве",
      "те х",
      "ле т",
      "чело ве",
      "о р",
      "бо ль",
      "сво бо",
      "све та",
      "ск ры",
      "че р",
      "я ви",
      "ни ю",
      "сво его",
      "об ъ",
      "до ро",
      "все гда",
      "во круг",
      "кра со",
      "са мо",
      "пере д",
      "дре в",
      "ми ра",
      "с вя",
      "си ла",
      "э ти",
      "но чь",
      "с лы",
      "но ви",
      "небе с",
      "щ их",
      "о ст",
      "вали сь",
      "д але",
      "каж до",
      "ду м",
      "ме ло",
      "вал о",
      "ка ми",
      "оста ви",
      "чу де",
      "ра я",
      "за б",
      "со бра",
      "у же",
      "п ти",
      "в ме",
      "же н",
      "то в",
      "з де",
      "та м",
      "те нь",
      "т ру",
      "му дро",
      "юно ша",
      "радо сть",
      "да же",
      "ви ди",
      "от ра",
      "к лю",
      "оди н",
      "о со",
      "г ри",
      "тре пе",
      "не е",
      "м но",
      "ш л",
      "ж ал",
      "мело ди",
      "ко н",
      "вал ся",
      "хра ни",
      "ст ву",
      "мо жет",
      "д али",
      "г ре",
      "ро в",
      "со б",
      "дере вь",
      "которы е",
      "ка я",
      "вдох нове",
      "звез ды",
      "ма н",
      "ста рец",
      "на х",
      "са м",
      "ю ще",
      "то к",
      "д ра",
      "по доб",
      "зо ло",
      "сво й",
      "е сли",
      "воз ь",
      "си ли",
      "з ло",
      "которы й",
      "ск у",
      "во ло",
      "до ж",
      "по р",
      "ну ла",
      "ско го",
      "ка р",
      "го р",
      "х у",
      "ко го",
      "это м",
      "те бе",
      "ры й",
      "су ще",
      "ю тся",
      "ну ть",
      "ле г",
      "вско ре",
      "ша я",
      "то го",
      "печ аль",
      "но сть",
      "х ва",
      "пе рь",
      "о кру",
      "ска за",
      "о щу",
      "и ли",
      "д ни",
      "ка за",
      "оди но",
      "ски х",
      "нно м",
      "по ве",
      "з ла",
      "спо мина",
      "а на",
      ") .",
      "ме жду",
      "по ки",
      "вши й",
      "зде сь",
      "ре з",
      "увиде л",
      "во ль",
      "на с",
      "по ко",
      "у м",
      "пе с",
      "тай ны",
      "ж у",
      "вы е",
      "ну в",
      "я ми",
      "г ро",
      "ск возь",
      "у ме",
      "вы й",
      "вы х",
      "би ра",
      "ми ре",
      "з ь",
      "ст ру",
      "глу би",
      "са ми",
      "ющи й",
      "не му",
      "вре мени",
      "наде жды",
      "напол ни",
      "e s",
      "о бы",
      "те бя",
      "неве до",
      "радо сти",
      "т ала",
      "н ю",
      "те ли",
      "пу га",
      "бу ду",
      "пи са",
      "зву ч",
      "мы й",
      "те перь",
      "му зы",
      "де ву",
      "мо жно",
      "о бе",
      "сказ ал",
      "но в",
      "мо гу",
      "ти ши",
      "ство м",
      "! »",
      "голо с",
      "произне с",
      "звз ды",
      "по ля",
      "ш ли",
      "ча с",
      "и гра",
      "зве зда",
      "со бой",
      "с про",
      "ст али",
      "на м",
      "х от",
      "ва ет",
      "вы со",
      "к ри",
      "каз алось",
      "п ря",
      "во ро",
      "ня я",
      "произне сла",
      "о ку",
      "ше й",
      "ты е",
      "лю дей",
      "вз я",
      "глаза х",
      "де л",
      "бу р",
      "во е",
      "цве ты",
      "мы е",
      "ф а",
      "по до",
      "ве с",
      "кото ро",
      "по нима",
      "ющи е",
      "иск ал",
      "и ва",
      "у тра",
      "лы й",
      "з он",
      "но чи",
      "во спомина",
      "сме х",
      "н с",
      "же ние",
      "дру го",
      "н ную",
      "свои м",
      "объ я",
      "про дол",
      "ти я",
      "иск ре",
      "та я",
      "воз вра",
      "каждо е",
      "ма я",
      "пре крас",
      "е шь",
      "доб ро",
      "\" ,",
      "иск ус",
      "на ко",
      "с л",
      "вет ра",
      "вме сте",
      "д ва",
      "лу чи",
      "на й",
      "кажды м",
      "и ска",
      "си м",
      "хо л",
      "во м",
      "приро ды",
      "про бу",
      "воз дух",
      "ко е",
      "да р",
      "ме р",
      "пу сти",
      "судь бы",
      "ти ла",
      "ния х",
      "из ве",
      "щ его",
      "дере в",
      "сно ва",
      "к ли",
      "поло н",
      "весе н",
      "по т",
      "чувст ва",
      "ну лась",
      "стран ник",
      "пуга че",
      "к ло",
      "бу дет",
      "? »",
      "све те",
      "ста р",
      "подоб но",
      "бо га",
      "о г",
      "де ли",
      "счасть я",
      "об и",
      "пу т",
      "мы сли",
      "про шло",
      "щи е",
      "ль я",
      "сто ро",
      "д но",
      "гори зон",
      "гри гори",
      "за га",
      "у го",
      "м ного",
      "дол го",
      "н ца",
      "ша г",
      "го род",
      "ст я",
      "на по",
      "одна ко",
      "не види",
      "нако нец",
      "го ро",
      "хо ло",
      "ва сили",
      "ски е",
      "на ми",
      "щи й",
      "каж дом",
      "челове к",
      "т но",
      "ро ва",
      "лю ди",
      "д ве",
      "да ть",
      "ни ца",
      "к ня",
      "ти хо",
      "д во",
      "по з",
      "ра н",
      "о к",
      "e n",
      "ня л",
      "за ка",
      "по ка",
      "лу ч",
      "стари к",
      "ро ди",
      "е ще",
      "ча я",
      "чувство вал",
      "б ре",
      "вши е",
      "те ше",
      "не до",
      "после д",
      "пи сь",
      "те лей",
      "лу на",
      "по теря",
      "ре ки",
      "п я",
      "раз и",
      "от прави",
      "при з",
      "од но",
      "в ну",
      "ка м",
      "за ви",
      "на ходи",
      "ко ло",
      "ш ал",
      "та ми",
      "ана ста",
      "ожи да",
      "стре ми",
      "вая сь",
      "ро ма",
      "че й",
      "глу бо",
      "о зе",
      "судь ба",
      "? \"",
      "ст ало",
      "поэ т",
      "пы т",
      "нач ал",
      "та и",
      "ру ки",
      "пол ни",
      "ни ки",
      "все х",
      "смо тре",
      "это й",
      "сол неч",
      "ца р",
      "е сть",
      "ш его",
      "зе ле",
      "зем лю",
      "к ла",
      "ис че",
      "вы м",
      "бо ле",
      "лы х",
      "пе ча",
      "по гру",
      "сме ло",
      "те ля",
      "у ди",
      "i i",
      "го то",
      "у чи",
      "в спо",
      "га р",
      "д ли",
      "поня л",
      "мя те",
      "са ма",
      "вре ме",
      "пушки н",
      "ру с",
      "ус лы",
      "григори й",
      "ды ха",
      "сте й",
      "ско лько",
      "чуде с",
      "му дре",
      "шеп тали",
      "еди н",
      "со в",
      "сту пи",
      "бе р",
      "д ня",
      "о бо",
      "ты й",
      "во го",
      "при шла",
      "кото рой",
      "хо дя",
      "чело вече",
      "з я",
      "се н",
      "с мы",
      "ра й",
      "про сты",
      "у тро",
      "д аль",
      "в ся",
      "ди л",
      "ми ну",
      "со бира",
      "сть я",
      "нно сти",
      "ти в",
      "боль ше",
      "ни ми",
      "те ле",
      "ле су",
      "м ле",
      "нны ми",
      "с ви",
      "во ды",
      "тель но",
      "но си",
      "д ви",
      "которы х",
      "слу ша",
      "та ть",
      "мо м",
      "кар ти",
      "си лу",
      "ху дож",
      "ли к",
      "о де",
      "мы х",
      "d e",
      "в то",
      "не с",
      "звз д",
      "деревь ев",
      "та нце",
      "лы е",
      "со м",
      "печ али",
      "спо соб",
      "по ро",
      "д не",
      "ю ный",
      "произ нс",
      "з у",
      "ну вшись",
      "ре ка",
      "в алась",
      "ст ала",
      "рас ска",
      "сло в",
      "к ни",
      "зву ки",
      "се я",
      "сме р",
      "до ч",
      "ко ле",
      "мо я",
      "ния ми",
      "го м",
      "ру ю",
      "со еди",
      "клю че",
      "r e",
      "то л",
      "о м",
      "сла в",
      "жи ла",
      "че рез",
      "ни ков",
      "сле ду",
      "бе д",
      "ти лся",
      "ты х",
      "те пло",
      "пи с",
      "ли цо",
      "па мя",
      "у ста",
      "ч его",
      "по мни",
      "со н",
      "за дум",
      "пол ные",
      "ло м",
      "ма сте",
      "до р",
      "воз можно",
      "o n",
      "мгнове ние",
      "нь е",
      "с пе",
      "я с",
      "остави в",
      "с па",
      "ко с",
      "жи ть",
      "ма ги",
      "небе са",
      "тре во",
      "ска я",
      "ту т",
      "ло й",
      "по кры",
      "со кро",
      "зна ть",
      "сол нца",
      "холо д",
      "ве дь",
      "пре да",
      "ви ч",
      "бе ск",
      "ч ал",
      "беск рай",
      "се ле",
      "ги е",
      "ли ца",
      "от ы",
      "о хва",
      "ри ла",
      "васили й",
      "вспо мни",
      "ча й",
      "раз д",
      "но к",
      "мо е",
      "ко ва",
      "бе ско",
      "зем ли",
      "во ск",
      "взгля д",
      "ско м",
      "з вали",
      "ар те",
      "ск ло",
      "стра х",
      "ре аль",
      "ц вет",
      "дру ж",
      "бе с",
      "в нима",
      "ши х",
      "беско неч",
      "! \"",
      "че стве",
      "цве ток",
      "деву шка",
      "анаста сия",
      "ду ш",
      "l e",
      "пра в",
      "1 7",
      "з ре",
      "т р",
      "это го",
      "да ми",
      "ко р",
      ". \"",
      "спро сил",
      "глаза ми",
      "во д",
      "че т",
      "нно сть",
      "пу ти",
      "то гда",
      "ю щих",
      "то му",
      "м але",
      "то р",
      "ла я",
      "сти хи",
      "мра ч",
      "боле е",
      "ни ть",
      "ри л",
      "вля я",
      "д ней",
      "от веч",
      "му д",
      "чу до",
      "ю щая",
      "дру га",
      "вши х",
      "р к",
      "ву ю",
      "же ство",
      "на стоя",
      "o u",
      "сво е",
      "пес ни",
      "от вет",
      "та н",
      "си ль",
      "ста нови",
      "во сто",
      "ще й",
      "ку да",
      "дер жа",
      "ра б",
      "напол ня",
      "па сту",
      "ко л",
      "a n",
      "ва ться",
      "вз о",
      "без мол",
      "не сколько",
      "ри ть",
      "сле д",
      "тво ре",
      "гар мо",
      "мы с",
      "в шая",
      "ста ви",
      "кра ю",
      "ро с",
      "мале нь",
      "о но",
      "во про",
      "ти ть",
      "сер де",
      "истори и",
      "чи на",
      "отве тил",
      "ни цы",
      "музы ка",
      "ж али",
      "нач али",
      "свер ка",
      "до в",
      "ко ро",
      "с не",
      "ки ми",
      "к ля",
      "по том",
      "б ри",
      "ма ри",
      "e t",
      "нь я",
      "свер к",
      "у кры",
      "но ч",
      "мо р",
      "неж ные",
      "у ж",
      "по ле",
      "ис пы",
      "воз ник",
      "ф ран",
      "мо мен",
      "шеп тал",
      "стре мле",
      "18 2",
      "сто й",
      "стви е",
      "н т",
      "по бе",
      "ра х",
      "все м",
      "э ту",
      "на род",
      "ло в",
      "му ю",
      "о го",
      "про н",
      "приро да",
      "под ня",
      "ходи т",
      "суще ство",
      "приз ра",
      "т м",
      "ф ор",
      "ва м",
      "ве де",
      "18 3",
      "н м",
      "оста нови",
      "ци и",
      "не на",
      "пушки на",
      "мы ш",
      "гля дя",
      "сла д",
      "те ри",
      "лу ча",
      "ста ть",
      "ни когда",
      "не зна",
      "зна я",
      "ж дой",
      "о те",
      "заме тил",
      "ше д",
      "си лы",
      "каж дая",
      "п ал",
      "искре н",
      "сво ем",
      "соб стве",
      "моло дой",
      "по кой",
      "стра ха",
      "напо мина",
      "ми й",
      "сердца х",
      "ли це",
      "до сти",
      "по мо",
      "ви тель",
      "реши л",
      "пе тро",
      "вер нулся",
      "вдохнове ния",
      "ме сто",
      "теле м",
      "в не",
      "сле до",
      "ж ала",
      "по сти",
      "да вно",
      "же ния",
      "стра да",
      "ве ко",
      "пу теше",
      "бере гу",
      "ту ма",
      "ми мо",
      "сча ст",
      "ну лись",
      "до ма",
      "ва с",
      "пу сть",
      "a i",
      "юще й",
      "уго л",
      "ку з",
      "то н",
      "г не",
      "ме ре",
      "при ня",
      "во ди",
      "зем ле",
      "и мя",
      "зага доч",
      "да х",
      "кото рая",
      "шо й",
      "об ще",
      "с му",
      "ра ми",
      "по чувствовал",
      "ва ри",
      "трепе т",
      "з ва",
      "ч но",
      "у жа",
      "жи ли",
      "си и",
      "мя г",
      "изве ст",
      "расска зы",
      "тя же",
      "ь я",
      "ре й",
      "да м",
      "по ры",
      "бога т",
      "го су",
      "ры е",
      "ти х",
      "а рома",
      "б лю",
      "о ча",
      "мудро сть",
      "юще е",
      "бе ло",
      "ста рый",
      "мы м",
      "вдохнове ние",
      "» ,",
      "чи т",
      "ру ках",
      "но ся",
      "ни ком",
      "щу ю",
      "ти че",
      "q u",
      "ста ро",
      "вс ю",
      "ощу тил",
      "ве н",
      "вало сь",
      "ду ю",
      "спо кой",
      "се ре",
      "ти хи",
      "вз дох",
      "гра ф",
      "о све",
      "ма рь",
      "т ря",
      "сокро ви",
      "ско ль",
      "лу га",
      "хо ро",
      "на чина",
      "по ра",
      "за ве",
      "на ро",
      "по й",
      "са мой",
      "э та",
      "бо ю",
      "жи в",
      "неж ный",
      "по рой",
      "осо зна",
      "ру ку",
      "зе л",
      "ост ался",
      "е х",
      "ча сто",
      "меч тал",
      "ющи м",
      "еди не",
      "се м",
      "по зна",
      "го в",
      "ски м",
      "пти ца",
      "утрен ний",
      "ну ли",
      "вер ши",
      "каз ался",
      "те й",
      "вер ь",
      "не у",
      "мо и",
      "мра к",
      "с пле",
      "на всегда",
      "радо стью",
      "ге н",
      "ф о",
      "e r",
      "наде жда",
      "наде жд",
      "любо пыт",
      "яви лась",
      "е з",
      "сказ ала",
      "ка п",
      "ч ка",
      "кото ром",
      "чуде са",
      "радо ст",
      "ого нь",
      "о че",
      "встре тил",
      "встре ти",
      "у ни",
      "най ти",
      "ра ду",
      "на т",
      "не когда",
      "л г",
      "по лу",
      "обла ка",
      "г р",
      "зе рк",
      "б ря",
      "ку ю",
      "ри т",
      "раз гово",
      "жен щи",
      "ши й",
      "бере га",
      "ч ки",
      "ш пот",
      "д ала",
      "ве сь",
      "ш ку",
      "мечта х",
      "ру чь",
      "ду ма",
      "мудро сти",
      "друго й",
      "за щи",
      "ним ал",
      "улыб кой",
      "сме я",
      "ходи л",
      "од ной",
      "заме р",
      "ве л",
      "ры х",
      "воспомина ния",
      "ря дом",
      "воздух е",
      "новы м",
      "бу дь",
      "па н",
      "пре вра",
      "за полни",
      "ис пол",
      "встре ча",
      "на ш",
      "деревь я",
      "ка ме",
      "све ту",
      "жи т",
      "бе се",
      "небо сво",
      "стра сти",
      "отвеч ал",
      "восто р",
      "ж ало",
      "та х",
      "ску ю",
      ") ,",
      "сло во",
      "дру зь",
      "реши лся",
      "рас цве",
      "наде ждой",
      "жела ние",
      "мо гла",
      "про стран",
      "ходи ли",
      "те л",
      "арте мий",
      "воск лик",
      "й те",
      "тво й",
      "бо ро",
      "масте р",
      "веч но",
      "новы е",
      "мо в",
      "со мне",
      "без д",
      "пугаче в",
      "са н",
      "вла ди",
      "о за",
      "ще м",
      "вол ны",
      "услы ша",
      "по ме",
      "при шл",
      "стар ца",
      "худож ник",
      "бы тия",
      "со се",
      "со гла",
      "ще е",
      "б ь",
      "которо го",
      "не обы",
      "кня зь",
      "ве ре",
      "тво р",
      "одино кий",
      "вели честве",
      "при ключе",
      "пол но",
      "отправи лся",
      "ле ген",
      "об ня",
      "обре л",
      "на ру",
      "отве тила",
      "заб лу",
      "ме ль",
      "сту п",
      "раз мыш",
      "ме ст",
      "мо ли",
      "ди ть",
      "сла ва",
      "стви я",
      "пре жде",
      "печа т",
      "вы ми",
      "п лы",
      "ва ется",
      "пут ник",
      "иск ра",
      "дол жен",
      "за м",
      "ро к",
      "с ра",
      "ч али",
      "раз у",
      "сто ль",
      "вол не",
      "не что",
      "и л",
      "нь ю",
      "которо е",
      "мно жество",
      "з али",
      "де ло",
      "вно й",
      "голо ву",
      "го рь",
      "от кро",
      "го ря",
      "ти е",
      "продол жал",
      "стоя л",
      "ка зы",
      "гла з",
      "мечта ний",
      "о се",
      "иск ри",
      "т ка",
      "ско р",
      "га я",
      "вз ор",
      "о стро",
      "ше е",
      "ост алась",
      "на блю",
      "гра ни",
      "г ли",
      "бли же",
      "волшеб ство",
      "при я",
      "каж дую",
      "я вля",
      "говори ли",
      "з ри",
      "про би",
      "кото рую",
      "ан на",
      "во ре",
      "нно му",
      "ту ман",
      "слова ми",
      "пре ле",
      "ал ы",
      "смо тря",
      "ус пе",
      "яви лся",
      "говори л",
      "че му",
      "мелоди я",
      "осо знал",
      "сердце м",
      "ч ный",
      "ле н",
      "озе ра",
      "сво ему",
      "ч ные",
      "по да",
      "ст аль",
      "пти цы",
      "ти й",
      "ста ни",
      "чувст в",
      "пере пле",
      "и но",
      "хо в",
      "ва ния",
      "заб ве",
      "в ли",
      "но вой",
      "вы шел",
      "воло сы",
      "испы та",
      "и т",
      "бо р",
      "ча сти",
      "кли на",
      "при вы",
      "ть му",
      "хра ня",
      "сво м",
      "хо ть",
      "цве тами",
      "ре д",
      "ги м",
      "оча рова",
      "ми ло",
      "смо три",
      "реши мо",
      "из мени",
      "цве тов",
      "ва ются",
      "со ве",
      "фе дор",
      "ста в",
      "вос хи",
      "за ж",
      "у зна",
      "ва р",
      "ю щего",
      "че нный",
      "мог ли",
      "за пи",
      "пра вля",
      "нач ала",
      "древ них",
      "про ти",
      "жи во",
      "кре п",
      "сти хот",
      "свети ла",
      "две ри",
      "ви ца",
      "вели чи",
      "свои ми",
      "само м",
      "ко ль",
      "су е",
      "на писа",
      "счаст ли",
      "ния м",
      "ге ро",
      "дела ть",
      "звуч ал",
      "l a",
      "о то",
      "дум ал",
      "г на",
      "г ло",
      "напол не",
      "эти х",
      "дыха ние",
      "щи м",
      "о до",
      "алек сан",
      "челове ка",
      "су т",
      "все го",
      "ска жи",
      "че ства",
      "пол ная",
      "ст в",
      "бе н",
      "бро ше",
      "слы ш",
      "i l",
      "го ды",
      "вспомни л",
      "ду хом",
      "ма ни",
      "ж дал",
      "мо ей",
      "за клина",
      "мо го",
      "кло ни",
      "т ались",
      "иск ры",
      "раз ве",
      "про сти",
      "пу ска",
      "хо д",
      "при зна",
      "лу ны",
      "мелоди и",
      "у т",
      "я зы",
      "с ны",
      "цве ту",
      "дол ж",
      "и бо",
      "ра м",
      "кры ль"
    ]
  }
}