{
  "version": "1.0",
  "truncation": null,
  "padding": null,
  "added_tokens": [
    {
      "id": 0,
      "content": "<unk>",
      "single_word": false,
      "lstrip": false,
      "rstrip": false,
      "normalized": false,
      "special": true
    },
    {
      "id": 1,
      "content": "<bos>",
      "single_word": false,
      "lstrip": false,
      "rstrip": false,
      "normalized": false,
      "special": true
    },
    {
      "id": 2,
      "content": "<eos>",
      "single_word": false,
      "lstrip": false,
      "rstrip": false,
      "normalized": false,
      "special": true
    },
    {
      "id": 3,
      "content": "<pad>",
      "single_word": false,
      "lstrip": false,
      "rstrip": false,
      "normalized": false,
      "special": true
    },
    {
      "id": 4,
      "content": "<\n>",
      "single_word": false,
      "lstrip": false,
      "rstrip": false,
      "normalized": false,
      "special": true
    }
  ],
  "normalizer": null,
  "pre_tokenizer": {
    "type": "Whitespace"
  },
  "post_processor": null,
  "decoder": null,
  "model": {
    "type": "BPE",
    "dropout": null,
    "unk_token": "<unk>",
    "continuing_subword_prefix": null,
    "end_of_word_suffix": null,
    "fuse_unk": false,
    "byte_fallback": false,
    "ignore_merges": false,
    "vocab": {
      "<unk>": 0,
      "<bos>": 1,
      "<eos>": 2,
      "<pad>": 3,
      "<\n>": 4,
      "!": 5,
      "\"": 6,
      "#": 7,
      "'": 8,
      "(": 9,
      ")": 10,
      ",": 11,
      "-": 12,
      ".": 13,
      ":": 14,
      ";": 15,
      "?": 16,
      "«": 17,
      "»": 18,
      "а": 19,
      "б": 20,
      "в": 21,
      "г": 22,
      "д": 23,
      "е": 24,
      "ж": 25,
      "з": 26,
      "и": 27,
      "й": 28,
      "к": 29,
      "л": 30,
      "м": 31,
      "н": 32,
      "о": 33,
      "п": 34,
      "р": 35,
      "с": 36,
      "т": 37,
      "у": 38,
      "ф": 39,
      "х": 40,
      "ц": 41,
      "ч": 42,
      "ш": 43,
      "щ": 44,
      "ъ": 45,
      "ы": 46,
      "ь": 47,
      "э": 48,
      "ю": 49,
      "я": 50,
      "—": 51,
      "…": 52,
      "ст": 53,
      "но": 54,
      "на": 55,
      "ни": 56,
      "ве": 57,
      "ал": 58,
      "ра": 59,
      "не": 60,
      "то": 61,
      "по": 62,
      "ка": 63,
      "во": 64,
      "ре": 65,
      "ро": 66,
      "го": 67,
      "ли": 68,
      "ла": 69,
      "ко": 70,
      "ло": 71,
      "ны": 72,
      "за": 73,
      "де": 74,
      "ми": 75,
      "се": 76,
      "ме": 77,
      "до": 78,
      "да": 79,
      "ле": 80,
      "сь": 81,
      "ри": 82,
      "те": 83,
      "ва": 84,
      "ть": 85,
      "##": 86,
      "ся": 87,
      "та": 88,
      "со": 89,
      "ви": 90,
      "его": 91,
      "как": 92,
      "мо": 93,
      "бы": 94,
      "ру": 95,
      "ти": 96,
      "что": 97,
      "он": 98,
      "ди": 99,
      "про": 100,
      "ки": 101,
      "ду": 102,
      "ну": 103,
      "из": 104,
      "бе": 105,
      "ды": 106,
      "али": 107,
      "че": 108,
      "бо": 109,
      "сво": 110,
      "ры": 111,
      "ста": 112,
      "же": 113,
      "пе": 114,
      "от": 115,
      "сть": 116,
      "све": 117,
      "ше": 118,
      "ши": 119,
      "ты": 120,
      "му": 121,
      "ль": 122,
      "це": 123,
      "лу": 124,
      "ние": 125,
      "сти": 126,
      "лю": 127,
      "об": 128,
      "при": 129,
      "ма": 130,
      "са": 131,
      "сер": 132,
      "ск": 133,
      "си": 134,
      "вы": 135,
      "жи": 136,
      "нны": 137,
      "ча": 138,
      "серд": 139,
      "ля": 140,
      "####": 141,
      "сто": 142,
      "сло": 143,
      "ала": 144,
      "ня": 145,
      "вно": 146,
      "их": 147,
      "ния": 148,
      "гда": 149,
      "раз": 150,
      "хо": 151,
      "нно": 152,
      "жды": 153,
      "ца": 154,
      "мы": 155,
      "чи": 156,
      "стра": 157,
      "нь": 158,
      "ша": 159,
      "пол": 160,
      "вз": 161,
      "шь": 162,
      "лся": 163,
      "сердце": 164,
      "когда": 165,
      "зна": 166,
      "га": 167,
      "лы": 168,
      "ву": 169,
      "пу": 170,
      "бу": 171,
      "где": 172,
      "ще": 173,
      "это": 174,
      "меч": 175,
      "су": 176,
      "ные": 177,
      "чу": 178,
      "ту": 179,
      "она": 180,
      "ря": 181,
      "пре": 182,
      "ку": 183,
      "вь": 184,
      "щи": 185,
      "вст": 186,
      "ска": 187,
      "ной": 188,
      "ный": 189,
      "од": 190,
      "ало": 191,
      "словно": 192,
      "ет": 193,
      "рас": 194,
      "том": 195,
      "под": 196,
      "зе": 197,
      "ная": 198,
      "ско": 199,
      "па": 200,
      "свет": 201,
      "але": 202,
      "гла": 203,
      "тре": 204,
      "дру": 205,
      "би": 206,
      "лишь": 207,
      "иск": 208,
      "все": 209,
      "жиз": 210,
      "воз": 211,
      "ний": 212,
      "кото": 213,
      "вши": 214,
      "сте": 215,
      "лись": 216,
      "лась": 217,
      "нный": 218,
      "сме": 219,
      "ство": 220,
      "сла": 221,
      "мя": 222,
      "кажды": 223,
      "вал": 224,
      "ных": 225,
      "цве": 226,
      "одна": 227,
      "дь": 228,
      "кры": 229,
      "кра": 230,
      "был": 231,
      "гу": 232,
      "мир": 233,
      "они": 234,
      "стве": 235,
      "ались": 236,
      "зы": 237,
      "аль": 238,
      "вер": 239,
      "пи": 240,
      "вол": 241,
      "жа": 242,
      "неж": 243,
      "свои": 244,
      "сле": 245,
      "ник": 246,
      "ей": 247,
      "вая": 248,
      "ги": 249,
      "радо": 250,
      "пере": 251,
      "ба": 252,
      "ного": 253,
      "каж": 254,
      "сердца": 255,
      "ща": 256,
      "каждый": 257,
      "кру": 258,
      "вре": 259,
      "вет": 260,
      "часть": 261,
      "ным": 262,
      "спо": 263,
      "вече": 264,
      "мени": 265,
      "произ": 266,
      "зо": 267,
      "ться": 268,
      "оста": 269,
      "ха": 270,
      "глаза": 271,
      "люб": 272,
      "тво": 273,
      "зве": 274,
      "тся": 275,
      "кой": 276,
      "чь": 277,
      "наде": 278,
      "гля": 279,
      "нове": 280,
      "тель": 281,
      "ке": 282,
      "однажды": 283,
      "сол": 284,
      "ался": 285,
      "нные": 286,
      "ней": 287,
      "зда": 288,
      "без": 289,
      "алек": 290,
      "ним": 291,
      "жизни": 292,
      "счасть": 293,
      "доб": 294,
      "чувст": 295,
      "шу": 296,
      "так": 297,
      "любви": 298,
      "виде": 299,
      "дере": 300,
      "дре": 301,
      "ис": 302,
      "хи": 303,
      "тай": 304,
      "зву": 305,
      "небе": 306,
      "стью": 307,
      "ном": 308,
      "сли": 309,
      "нии": 310,
      "дя": 311,
      "пле": 312,
      "мечта": 313,
      "пы": 314,
      "######": 315,
      "##########": 316,
      "алексе": 317,
      "ром": 318,
      "тя": 319,
      "нием": 320,
      "любо": 321,
      "сту": 322,
      "которы": 323,
      "голо": 324,
      ".##########": 325,
      "нце": 326,
      "вновь": 327,
      "сре": 328,
      "ком": 329,
      "глу": 330,
      "ющи": 331,
      "вшись": 332,
      "алась": 333,
      "друг": 334,
      "лько": 335,
      "тер": 336,
      "зем": 337,
      "шеп": 338,
      "каждо": 339,
      "встре": 340,
      "мечты": 341,
      "еди": 342,
      "лось": 343,
      "просто": 344,
      "кто": 345,
      "среди": 346,
      "ную": 347,
      "вали": 348,
      "дол": 349,
      "ное": 350,
      "соб": 351,
      "зи": 352,
      "вели": 353,
      "ему": 354,
      "тил": 355,
      "таи": 356,
      "сы": 357,
      "стран": 358,
      "жил": 359,
      "напол": 360,
      "сты": 361,
      "пра": 362,
      "слова": 363,
      "юно": 364,
      "волше": 365,
      "волшеб": 366,
      "судь": 367,
      "рь": 368,
      "алексей": 369,
      "ски": 370,
      "только": 371,
      "ства": 372,
      "стал": 373,
      "дох": 374,
      "них": 375,
      "нной": 376,
      "алось": 377,
      "ходи": 378,
      "оди": 379,
      "мне": 380,
      "произне": 381,
      "леса": 382,
      "звз": 383,
      "тро": 384,
      "слу": 385,
      "нная": 386,
      "было": 387,
      "щу": 388,
      "ков": 389,
      "род": 390,
      "тра": 391,
      "гра": 392,
      "веч": 393,
      "стре": 394,
      "бя": 395,
      "была": 396,
      "любовь": 397,
      "своих": 398,
      "жизнь": 399,
      "мой": 400,
      "вс": 401,
      "нима": 402,
      "ге": 403,
      "приро": 404,
      "хра": 405,
      "взгля": 406,
      "вать": 407,
      "гори": 408,
      "свою": 409,
      "пред": 410,
      "муд": 411,
      "тал": 412,
      "него": 413,
      "счастье": 414,
      "исти": 415,
      "лес": 416,
      "нных": 417,
      "нач": 418,
      "кро": 419,
      "сия": 420,
      "ясь": 421,
      "гру": 422,
      "стоя": 423,
      "небо": 424,
      "печ": 425,
      "реши": 426,
      "вечер": 427,
      "стари": 428,
      "тени": 429,
      "обре": 430,
      "нул": 431,
      "вот": 432,
      "чтобы": 433,
      "мг": 434,
      "каз": 435,
      "смо": 436,
      "забы": 437,
      "вя": 438,
      "жд": 439,
      "созда": 440,
      "слы": 441,
      "нстве": 442,
      "той": 443,
      "кий": 444,
      "увиде": 445,
      "вля": 446,
      "ют": 447,
      "рой": 448,
      "звез": 449,
      "жда": 450,
      "трен": 451,
      "улы": 452,
      "вдох": 453,
      "чело": 454,
      "дом": 455,
      "дух": 456,
      "тот": 457,
      "светом": 458,
      "вра": 459,
      "ности": 460,
      "дой": 461,
      "жела": 462,
      "вле": 463,
      "обла": 464,
      "бой": 465,
      "ными": 466,
      "знал": 467,
      "ем": 468,
      "буд": 469,
      "нем": 470,
      "путь": 471,
      "пла": 472,
      "весе": 473,
      "тали": 474,
      "цы": 475,
      "мина": 476,
      "нное": 477,
      "время": 478,
      "имени": 479,
      "ветер": 480,
      "миг": 481,
      "хом": 482,
      "гово": 483,
      "солнце": 484,
      "своей": 485,
      "бере": 486,
      "нулся": 487,
      "были": 488,
      "горе": 489,
      "над": 490,
      "свер": 491,
      "откры": 492,
      "улыб": 493,
      "свети": 494,
      "вдруг": 495,
      "пло": 496,
      "бро": 497,
      "шла": 498,
      "щая": 499,
      "поня": 500,
      "души": 501,
      "заме": 502,
      "круг": 503,
      "день": 504,
      "жду": 505,
      "жно": 506,
      "теря": 507,
      "».": 508,
      "новы": 509,
      "неч": 510,
      "мгнове": 511,
      "яр": 512,
      "исто": 513,
      "себе": 514,
      "утрен": 515,
      "душу": 516,
      "душа": 517,
      "таинстве": 518,
      "сказ": 519,
      "будто": 520,
      "жде": 521,
      "для": 522,
      "ост": 523,
      "вала": 524,
      "поло": 525,
      "ется": 526,
      "мни": 527,
      "вокруг": 528,
      "этот": 529,
      "света": 530,
      "мра": 531,
      "чувство": 532,
      "дая": 533,
      "мело": 534,
      "тем": 535,
      "рец": 536,
      "тех": 537,
      "отве": 538,
      "древ": 539,
      "ках": 540,
      "кие": 541,
      "небес": 542,
      "обра": 543,
      "душе": 544,
      "чуде": 545,
      "мол": 546,
      "фе": 547,
      "вос": 548,
      "ких": 549,
      "шло": 550,
      "красо": 551,
      "себя": 552,
      "неве": 553,
      "дал": 554,
      "нного": 555,
      "пти": 556,
      "скры": 557,
      "юноша": 558,
      "дей": 559,
      "ях": 560,
      "радость": 561,
      "сно": 562,
      "вой": 563,
      "ожи": 564,
      "нным": 565,
      "сила": 566,
      "ками": 567,
      "шл": 568,
      "мудро": 569,
      "всегда": 570,
      "мелоди": 571,
      "тень": 572,
      "бла": 573,
      "жет": 574,
      "ар": 575,
      "вались": 576,
      "ев": 577,
      "старец": 578,
      "звезды": 579,
      "деревь": 580,
      "свобо": 581,
      "шка": 582,
      "бли": 583,
      "крас": 584,
      "лей": 585,
      "отра": 586,
      "щих": 587,
      "стви": 588,
      "трепе": 589,
      "ночь": 590,
      "остави": 591,
      "мира": 592,
      "вско": 593,
      "шо": 594,
      "вдохнове": 595,
      "дале": 596,
      "прави": 597,
      "даже": 598,
      "дож": 599,
      "ощу": 600,
      "пер": 601,
      "подоб": 602,
      "своего": 603,
      "дет": 604,
      "ким": 605,
      "золо": 606,
      "образ": 607,
      "одино": 608,
      "ность": 609,
      "три": 610,
      "осо": 611,
      "эти": 612,
      "шел": 613,
      "возь": 614,
      "клю": 615,
      "мог": 616,
      "воло": 617,
      "ток": 618,
      "вла": 619,
      "храни": 620,
      "быть": 621,
      "рая": 622,
      "моло": 623,
      "сил": 624,
      "тайны": 625,
      "поки": 626,
      "иску": 627,
      "яви": 628,
      "благо": 629,
      "юще": 630,
      "стро": 631,
      "дела": 632,
      "мен": 633,
      "тала": 634,
      "нула": 635,
      "поэ": 636,
      "вме": 637,
      "объ": 638,
      "фи": 639,
      "вскоре": 640,
      "сквозь": 641,
      "глуби": 642,
      "зла": 643,
      "гри": 644,
      "бле": 645,
      "види": 646,
      "наполни": 647,
      "меня": 648,
      "люби": 649,
      "нах": 650,
      "суще": 651,
      "дали": 652,
      "кре": 653,
      "цо": 654,
      "неведо": 655,
      "!»": 656,
      "радости": 657,
      "надежды": 658,
      "дум": 659,
      "стру": 660,
      "этом": 661,
      "звуч": 662,
      "сили": 663,
      "звзды": 664,
      "ее": 665,
      "дни": 666,
      "шая": 667,
      "тов": 668,
      "говори": 669,
      "нув": 670,
      "свой": 671,
      "ци": 672,
      "кая": 673,
      "вался": 674,
      "нию": 675,
      "цу": 676,
      "поко": 677,
      "окру": 678,
      "ана": 679,
      "произнес": 680,
      "печаль": 681,
      "спомина": 682,
      "произнесла": 683,
      "звезда": 684,
      "увидел": 685,
      "ющий": 686,
      "оку": 687,
      "хва": 688,
      "нови": 689,
      "один": 690,
      "нец": 691,
      "тиши": 692,
      "музы": 693,
      "рый": 694,
      "боль": 695,
      "которые": 696,
      "чем": 697,
      "может": 698,
      "пор": 699,
      "перед": 700,
      "сами": 701,
      "нном": 702,
      "цветы": 703,
      "верну": 704,
      "истори": 705,
      "мире": 706,
      "собой": 707,
      "дер": 708,
      "глазах": 709,
      "лет": 710,
      "поля": 711,
      "ан": 712,
      "ются": 713,
      "ор": 714,
      "пес": 715,
      "который": 716,
      "свя": 717,
      "искал": 718,
      "смех": 719,
      "лег": 720,
      "челове": 721,
      "заб": 722,
      "деву": 723,
      "каждое": 724,
      "времени": 725,
      "ями": 726,
      "голос": 727,
      "няя": 728,
      "ху": 729,
      "гор": 730,
      "ров": 731,
      "нс": 732,
      "понима": 733,
      "ветра": 734,
      "зон": 735,
      "каждым": 736,
      "сказа": 737,
      "гре": 738,
      "вес": 739,
      "зде": 740,
      "зло": 741,
      "если": 742,
      "ству": 743,
      "тру": 744,
      "?»": 745,
      "тые": 746,
      "весен": 747,
      "странник": 748,
      "искре": 749,
      "перь": 750,
      "стали": 751,
      "природы": 752,
      "ющие": 753,
      "судьбы": 754,
      "там": 755,
      "мый": 756,
      "полон": 757,
      "утра": 758,
      "воздух": 759,
      "нему": 760,
      "вший": 761,
      "хол": 762,
      "пробу": 763,
      "мые": 764,
      "ночи": 765,
      "горизон": 766,
      "счастья": 767,
      "светлы": 768,
      "ника": 769,
      "тума": 770,
      "нежно": 771,
      "иска": 772,
      "могу": 773,
      "подобно": 774,
      "ской": 775,
      "казалось": 776,
      "зага": 777,
      "людей": 778,
      "тила": 779,
      "дра": 780,
      "сам": 781,
      "вых": 782,
      "тели": 783,
      "невиди": 784,
      "шаг": 785,
      "гр": 786,
      "стар": 787,
      "пут": 788,
      "здесь": 789,
      "каждом": 790,
      "воспомина": 791,
      "само": 792,
      "мно": 793,
      "чувства": 794,
      "нет": 795,
      "высо": 796,
      "нца": 797,
      "жен": 798,
      "най": 799,
      "искус": 800,
      "прекрас": 801,
      "оби": 802,
      "чер": 803,
      "пот": 804,
      "доро": 805,
      "кар": 806,
      "свете": 807,
      "нее": 808,
      "лья": 809,
      "след": 810,
      "ством": 811,
      "зака": 812,
      "тая": 813,
      "григори": 814,
      "име": 815,
      "буду": 816,
      "ум": 817,
      "анаста": 818,
      "сим": 819,
      "прошло": 820,
      "вые": 821,
      "долж": 822,
      "мая": 823,
      "своим": 824,
      "теперь": 825,
      "щие": 826,
      "тия": 827,
      "обы": 828,
      "подо": 829,
      "чувствовал": 830,
      "солнеч": 831,
      "ог": 832,
      "лик": 833,
      "сл": 834,
      "ниях": 835,
      "вместе": 836,
      "луна": 837,
      "вает": 838,
      "реки": 839,
      "можно": 840,
      "добро": 841,
      "потеря": 842,
      "спро": 843,
      "приз": 844,
      "соби": 845,
      "тебе": 846,
      "лучи": 847,
      "васили": 848,
      "зь": 849,
      "объя": 850,
      "пря": 851,
      "нес": 852,
      "стреми": 853,
      "напо": 854,
      "которо": 855,
      "уже": 856,
      "озе": 857,
      "шептали": 858,
      "щий": 859,
      "того": 860,
      "полни": 861,
      "дерев": 862,
      "землю": 863,
      "нную": 864,
      "понял": 865,
      "ню": 866,
      "судьба": 867,
      "ваясь": 868,
      "шли": 869,
      "чудес": 870,
      "снова": 871,
      "между": 872,
      "мысли": 873,
      "тихо": 874,
      "бер": 875,
      "исче": 876,
      "им": 877,
      "рова": 878,
      "погру": 879,
      "старик": 880,
      "дели": 881,
      "вом": 882,
      "слыш": 883,
      "стало": 884,
      "смело": 885,
      "забо": 886,
      "мудре": 887,
      "люди": 888,
      "зеле": 889,
      "собра": 890,
      "звзд": 891,
      "пришла": 892,
      "щего": 893,
      "пока": 894,
      "цвета": 895,
      "начал": 896,
      "пусти": 897,
      "скра": 898,
      "уго": 899,
      "рома": 900,
      "нуть": 901,
      "вшие": 902,
      "ожида": 903,
      "деревьев": 904,
      "однако": 905,
      "просты": 906,
      "произнс": 907,
      "дыха": 908,
      "утро": 909,
      "сама": 910,
      "зави": 911,
      "юный": 912,
      "жение": 913,
      "возвра": 914,
      "вну": 915,
      "танце": 916,
      "нулась": 917,
      "григорий": 918,
      "худож": 919,
      "человече": 920,
      "вспо": 921,
      "лесу": 922,
      "мле": 923,
      "нял": 924,
      "пове": 925,
      "река": 926,
      "теше": 927,
      "час": 928,
      "руки": 929,
      "печали": 930,
      "гом": 931,
      "ница": 932,
      "вало": 933,
      "ску": 934,
      "рази": 935,
      "много": 936,
      "холо": 937,
      "уди": 938,
      "ешь": 939,
      "звуки": 940,
      "чей": 941,
      "рез": 942,
      "бога": 943,
      "тепло": 944,
      "шей": 945,
      "этой": 946,
      "стя": 947,
      "гар": 948,
      "способ": 949,
      "полные": 950,
      "оставив": 951,
      "трево": 952,
      "дар": 953,
      "глубо": 954,
      "кло": 955,
      "мгновение": 956,
      "взя": 957,
      "кли": 958,
      "бре": 959,
      "силу": 960,
      "воды": 961,
      "бескра": 962,
      "време": 963,
      "бескрай": 964,
      "бра": 965,
      "кри": 966,
      "дел": 967,
      "смы": 968,
      "зво": 969,
      "недо": 970,
      "горо": 971,
      "уме": 972,
      "кон": 973,
      "вое": 974,
      "ин": 975,
      "чая": 976,
      "небеса": 977,
      "солнца": 978,
      "больше": 979,
      "охва": 980,
      "отправи": 981,
      "масте": 982,
      "сокро": 983,
      "арте": 984,
      "город": 985,
      "анастасия": 986,
      "пыт": 987,
      "звали": 988,
      "реаль": 989,
      "смотре": 990,
      "беско": 991,
      "ключе": 992,
      "долго": 993,
      "цветок": 994,
      "валась": 995,
      "жила": 996,
      "стала": 997,
      "василий": 998,
      "нас": 999,
      "кам": 1000,
      "воро": 1001,
      "телей": 1002,
      "бесконеч": 1003,
      "кое": 1004,
      "взгляд": 1005,
      "кос": 1006,
      "нако": 1007,
      "карти": 1008,
      "маги": 1009,
      "нами": 1010,
      "тебя": 1011,
      "фа": 1012,
      "носи": 1013,
      "слав": 1014,
      "вый": 1015,
      "одно": 1016,
      "страх": 1017,
      "соеди": 1018,
      "ских": 1019,
      "загадо": 1020,
      "луч": 1021,
      "гро": 1022,
      "мом": 1023,
      "тых": 1024,
      "даль": 1025,
      "мых": 1026,
      "вери": 1027,
      "задум": 1028,
      "покры": 1029,
      "вспомни": 1030,
      "которых": 1031,
      "мер": 1032,
      "нными": 1033,
      "земли": 1034,
      "встрети": 1035,
      "ведь": 1036,
      "учи": 1037,
      "ющая": 1038,
      "спе": 1039,
      "поэт": 1040,
      "безд": 1041,
      "девушка": 1042,
      "два": 1043,
      "глазами": 1044,
      "позна": 1045,
      "дли": 1046,
      "ок": 1047,
      "ними": 1048,
      "пути": 1049,
      "стей": 1050,
      "наполня": 1051,
      "уста": 1052,
      "ходя": 1053,
      "поро": 1054,
      "кого": 1055,
      "будет": 1056,
      "нности": 1057,
      "которой": 1058,
      "оде": 1059,
      "изве": 1060,
      "коле": 1061,
      "ступи": 1062,
      "вляя": 1063,
      "расска": 1064,
      "гармо": 1065,
      "ответил": 1066,
      "наконец": 1067,
      "осе": 1068,
      "дил": 1069,
      "пасту": 1070,
      "слов": 1071,
      "ниями": 1072,
      "друж": 1073,
      "сверка": 1074,
      "нок": 1075,
      "воск": 1076,
      "продолж": 1077,
      "чудо": 1078,
      "дать": 1079,
      "мяте": 1080,
      "помни": 1081,
      "сов": 1082,
      "человек": 1083,
      "нам": 1084,
      "укры": 1085,
      "холод": 1086,
      "краю": 1087,
      "честве": 1088,
      "шептал": 1089,
      "тм": 1090,
      "момен": 1091,
      "нежные": 1092,
      "скло": 1093,
      "нм": 1094,
      "музыка": 1095,
      "дами": 1096,
      "творе": 1097,
      "стремле": 1098,
      "слыша": 1099,
      "возник": 1100,
      "мрач": 1101,
      "слуша": 1102,
      "сом": 1103,
      "прон": 1104,
      "испы": 1105,
      "тый": 1106,
      "дро": 1107,
      "сверк": 1108,
      "трепет": 1109,
      "рую": 1110,
      "лицо": 1111,
      "природа": 1112,
      "каждая": 1113,
      "призра": 1114,
      "сердцах": 1115,
      "собр": 1116,
      "теле": 1117,
      "безмол": 1118,
      "жу": 1119,
      "мий": 1120,
      "всех": 1121,
      "дор": 1122,
      "разд": 1123,
      "настоя": 1124,
      "станови": 1125,
      "вдохновения": 1126,
      "ющих": 1127,
      "роди": 1128,
      "преда": 1129,
      "начали": 1130,
      "вшая": 1131,
      "ждой": 1132,
      "ники": 1133,
      "глядя": 1134,
      "песни": 1135,
      "зер": 1136,
      "яс": 1137,
      "следу": 1138,
      "стья": 1139,
      "лых": 1140,
      "веко": 1141,
      "вернулся": 1142,
      "искрен": 1143,
      "есть": 1144,
      "решил": 1145,
      "сви": 1146,
      "серде": 1147,
      "загадоч": 1148,
      "находи": 1149,
      "существо": 1150,
      "осозна": 1151,
      "силы": 1152,
      "гото": 1153,
      "памя": 1154,
      "лой": 1155,
      "страха": 1156,
      "сторо": 1157,
      "мудрость": 1158,
      "напомина": 1159,
      "арома": 1160,
      "дней": 1161,
      "почувствовал": 1162,
      "мари": 1163,
      "»,": 1164,
      "этого": 1165,
      "душ": 1166,
      "вдохновение": 1167,
      "ощутил": 1168,
      "жество": 1169,
      "простора": 1170,
      "угол": 1171,
      "мяг": 1172,
      "ого": 1173,
      "дня": 1174,
      "расцве": 1175,
      "мале": 1176,
      "страда": 1177,
      "лица": 1178,
      "селе": 1179,
      "сон": 1180,
      "друга": 1181,
      "пусть": 1182,
      "слад": 1183,
      "ноч": 1184,
      "зная": 1185,
      "лая": 1186,
      "дари": 1187,
      "кими": 1188,
      "незна": 1189,
      "вым": 1190,
      "возможно": 1191,
      "нить": 1192,
      "запе": 1193,
      "луча": 1194,
      "мечтал": 1195,
      "игр": 1196,
      "берегу": 1197,
      "тив": 1198,
      "гие": 1199,
      "малень": 1200,
      "зел": 1201,
      "внима": 1202,
      "заметил": 1203,
      "послед": 1204,
      "взо": 1205,
      "гой": 1206,
      "лом": 1207,
      "оно": 1208,
      "собир": 1209,
      "или": 1210,
      "щей": 1211,
      "утренний": 1212,
      "сокрови": 1213,
      "мую": 1214,
      "вздох": 1215,
      "вших": 1216,
      "земле": 1217,
      "кол": 1218,
      "проби": 1219,
      "писа": 1220,
      "птица": 1221,
      "жить": 1222,
      "нность": 1223,
      "нежный": 1224,
      "тихи": 1225,
      "зре": 1226,
      "дви": 1227,
      "плы": 1228,
      "радостью": 1229,
      "богат": 1230,
      "жал": 1231,
      "луга": 1232,
      "тельно": 1233,
      "вне": 1234,
      "тяну": 1235,
      "искра": 1236,
      "надежд": 1237,
      "кни": 1238,
      "тр": 1239,
      "цар": 1240,
      "чудеса": 1241,
      "кла": 1242,
      "лг": 1243,
      "стихи": 1244,
      "тно": 1245,
      "шпот": 1246,
      "навсегда": 1247,
      "кор": 1248,
      "облака": 1249,
      "дости": 1250,
      "ом": 1251,
      "ющей": 1252,
      "мрак": 1253,
      "рые": 1254,
      "мечтах": 1255,
      "тяже": 1256,
      "вого": 1257,
      "собстве": 1258,
      "поры": 1259,
      "подня": 1260,
      "мудрости": 1261,
      "спле": 1262,
      "раду": 1263,
      "моя": 1264,
      "ответ": 1265,
      "оча": 1266,
      "чал": 1267,
      "шки": 1268,
      "нося": 1269,
      "ющее": 1270,
      "спросил": 1271,
      "вую": 1272,
      "кап": 1273,
      "заполни": 1274,
      "валось": 1275,
      "теля": 1276,
      "надежда": 1277,
      "дах": 1278,
      "небосво": 1279,
      "порой": 1280,
      "коло": 1281,
      "мор": 1282,
      "дую": 1283,
      "спа": 1284,
      "явилась": 1285,
      "вся": 1286,
      "ские": 1287,
      "деревья": 1288,
      "радост": 1289,
      "блю": 1290,
      "испыта": 1291,
      "руках": 1292,
      "замер": 1293,
      "воздухе": 1294,
      "телем": 1295,
      "витель": 1296,
      "мыс": 1297,
      "найти": 1298,
      "ручь": 1299,
      "приходи": 1300,
      "мимо": 1301,
      "артемий": 1302,
      "мыш": 1303,
      "обо": 1304,
      "улыбкой": 1305,
      "ген": 1306,
      "узна": 1307,
      "нувшись": 1308,
      "следо": 1309,
      "свету": 1310,
      "рядом": 1311,
      "пришл": 1312,
      "имя": 1313,
      "надеждой": 1314,
      "остался": 1315,
      "рассказы": 1316,
      "грани": 1317,
      "восклик": 1318,
      "осве": 1319,
      "щую": 1320,
      "нена": 1321,
      "рабо": 1322,
      "вопро": 1323,
      "огонь": 1324,
      "вод": 1325,
      "ваться": 1326,
      "простран": 1327,
      "коро": 1328,
      "величестве": 1329,
      "превра": 1330,
      "искри": 1331,
      "ющим": 1332,
      "ответила": 1333,
      "художник": 1334,
      "помо": 1335,
      "старца": 1336,
      "оказ": 1337,
      "самой": 1338,
      "одинокий": 1339,
      "зерк": 1340,
      "мым": 1341,
      "эту": 1342,
      "симф": 1343,
      "бур": 1344,
      "хот": 1345,
      "чина": 1346,
      "мастер": 1347,
      "восто": 1348,
      "ших": 1349,
      "обе": 1350,
      "кля": 1351,
      "сере": 1352,
      "цвету": 1353,
      "через": 1354,
      "верши": 1355,
      "чат": 1356,
      "желание": 1357,
      "новым": 1358,
      "позво": 1359,
      "обрел": 1360,
      "приключе": 1361,
      "покой": 1362,
      "леген": 1363,
      "стать": 1364,
      "цвет": 1365,
      "рт": 1366,
      "встретил": 1367,
      "берега": 1368,
      "игра": 1369,
      "волшебство": 1370,
      "вечера": 1371,
      "мечтаний": 1372,
      "волны": 1373,
      "сказал": 1374,
      "заве": 1375,
      "путник": 1376,
      "нимал": 1377,
      "зу": 1378,
      "нечто": 1379,
      "каждую": 1380,
      "воспоминания": 1381,
      "место": 1382,
      "шего": 1383,
      "лее": 1384,
      "озера": 1385,
      "гне": 1386,
      "куз": 1387,
      "сколь": 1388,
      "осознал": 1389,
      "ником": 1390,
      "старый": 1391,
      "жив": 1392,
      "заблу": 1393,
      "мелодия": 1394,
      "истории": 1395,
      "чка": 1396,
      "бытия": 1397,
      "путеше": 1398,
      "чай": 1399,
      "едине": 1400,
      "щее": 1401,
      "тих": 1402,
      "рых": 1403,
      "вечно": 1404,
      "часто": 1405,
      "щем": 1406,
      "туман": 1407,
      "\".": 1408,
      "степа": 1409,
      "осталась": 1410,
      "обня": 1411,
      "новые": 1412,
      "птицы": 1413,
      "оза": 1414,
      "мое": 1415,
      "неу": 1416,
      "тон": 1417,
      "един": 1418,
      "защи": 1419
    },
    "merges": [
      "с т",
      "н о",
      "н а",
      "н и",
      "в е",
      "а л",
      "р а",
      "н е",
      "т о",
      "п о",
      "к а",
      "в о",
      "р е",
      "р о",
      "г о",
      "л и",
      "л а",
      "к о",
      "л о",
      "н ы",
      "з а",
      "д е",
      "м и",
      "с е",
      "м е",
      "д о",
      "д а",
      "л е",
      "с ь",
      "р и",
      "т е",
      "в а",
      "т ь",
      "# #",
      "с я",
      "т а",
      "с о",
      "в и",
      "е го",
      "ка к",
      "м о",
      "б ы",
      "р у",
      "т и",
      "ч то",
      "о н",
      "д и",
      "п ро",
      "к и",
      "д у",
      "н у",
      "и з",
      "б е",
      "д ы",
      "ал и",
      "ч е",
      "б о",
      "с во",
      "р ы",
      "ст а",
      "ж е",
      "п е",
      "о т",
      "ст ь",
      "с ве",
      "ш е",
      "ш и",
      "т ы",
      "м у",
      "л ь",
      "ц е",
      "л у",
      "ни е",
      "ст и",
      "л ю",
      "о б",
      "п ри",
      "м а",
      "с а",
      "се р",
      "с к",
      "с и",
      "в ы",
      "ж и",
      "н ны",
      "ч а",
      "сер д",
      "л я",
      "## ##",
      "ст о",
      "с ло",
      "ал а",
      "н я",
      "в но",
      "и х",
      "ни я",
      "г да",
      "ра з",
      "х о",
      "н но",
      "ж ды",
      "ц а",
      "м ы",
      "ч и",
      "ст ра",
      "н ь",
      "ш а",
      "по л",
      "в з",
      "ш ь",
      "л ся",
      "серд це",
      "ко гда",
      "з на",
      "г а",
      "л ы",
      "в у",
      "п у",
      "б у",
      "г де",
      "щ е",
      "э то",
      "ме ч",
      "с у",
      "ны е",
      "ч у",
      "т у",
      "о на",
      "р я",
      "п ре",
      "к у",
      "в ь",
      "щ и",
      "в ст",
      "с ка",
      "но й",
      "ны й",
      "о д",
      "ал о",
      "сло вно",
      "е т",
      "ра с",
      "то м",
      "по д",
      "з е",
      "на я",
      "с ко",
      "п а",
      "све т",
      "ал е",
      "г ла",
      "т ре",
      "д ру",
      "б и",
      "ли шь",
      "и ск",
      "в се",
      "ж из",
      "во з",
      "ни й",
      "ко то",
      "в ши",
      "ст е",
      "ли сь",
      "ла сь",
      "нны й",
      "с ме",
      "ст во",
      "с ла",
      "м я",
      "ка жды",
      "в ал",
      "ны х",
      "ц ве",
      "од на",
      "д ь",
      "к ры",
      "к ра",
      "бы л",
      "г у",
      "ми р",
      "о ни",
      "ст ве",
      "али сь",
      "з ы",
      "ал ь",
      "ве р",
      "п и",
      "во л",
      "ж а",
      "не ж",
      "сво и",
      "с ле",
      "ни к",
      "е й",
      "ва я",
      "г и",
      "ра до",
      "пе ре",
      "б а",
      "но го",
      "ка ж",
      "серд ца",
      "щ а",
      "кажды й",
      "к ру",
      "в ре",
      "ве т",
      "ча сть",
      "ны м",
      "с по",
      "ве че",
      "ме ни",
      "про из",
      "з о",
      "ть ся",
      "о ста",
      "х а",
      "гла за",
      "лю б",
      "т во",
      "з ве",
      "т ся",
      "ко й",
      "ч ь",
      "на де",
      "г ля",
      "но ве",
      "те ль",
      "к е",
      "одна жды",
      "со л",
      "ал ся",
      "нны е",
      "не й",
      "з да",
      "бе з",
      "але к",
      "ни м",
      "жиз ни",
      "с часть",
      "до б",
      "чу вст",
      "ш у",
      "та к",
      "люб ви",
      "ви де",
      "де ре",
      "д ре",
      "и с",
      "х и",
      "та й",
      "з ву",
      "не бе",
      "сть ю",
      "но м",
      "с ли",
      "ни и",
      "д я",
      "п ле",
      "меч та",
      "п ы",
      "#### ##",
      "#### ######",
      "алек се",
      "ро м",
      "т я",
      "ние м",
      "лю бо",
      "ст у",
      "кото ры",
      "го ло",
      ". ##########",
      "н це",
      "вно вь",
      "с ре",
      "ко м",
      "г лу",
      "ю щи",
      "вши сь",
      "ала сь",
      "дру г",
      "ль ко",
      "те р",
      "зе м",
      "ше п",
      "каж до",
      "вст ре",
      "меч ты",
      "е ди",
      "ло сь",
      "про сто",
      "к то",
      "сре ди",
      "ну ю",
      "в али",
      "до л",
      "но е",
      "со б",
      "з и",
      "ве ли",
      "е му",
      "ти л",
      "та и",
      "с ы",
      "стра н",
      "жи л",
      "на пол",
      "ст ы",
      "п ра",
      "сло ва",
      "ю но",
      "вол ше",
      "волше б",
      "су дь",
      "р ь",
      "алексе й",
      "с ки",
      "то лько",
      "ст ва",
      "ст ал",
      "до х",
      "ни х",
      "нно й",
      "ало сь",
      "хо ди",
      "о ди",
      "м не",
      "произ не",
      "ле са",
      "з вз",
      "т ро",
      "с лу",
      "н ная",
      "бы ло",
      "щ у",
      "ко в",
      "ро д",
      "т ра",
      "г ра",
      "ве ч",
      "ст ре",
      "б я",
      "бы ла",
      "любо вь",
      "сво их",
      "жиз нь",
      "мо й",
      "в с",
      "ни ма",
      "г е",
      "при ро",
      "х ра",
      "вз гля",
      "ва ть",
      "го ри",
      "сво ю",
      "пре д",
      "му д",
      "т ал",
      "не го",
      "счасть е",
      "и сти",
      "ле с",
      "нны х",
      "на ч",
      "к ро",
      "си я",
      "я сь",
      "г ру",
      "сто я",
      "не бо",
      "пе ч",
      "ре ши",
      "вече р",
      "ста ри",
      "те ни",
      "об ре",
      "ну л",
      "во т",
      "что бы",
      "м г",
      "ка з",
      "с мо",
      "за бы",
      "в я",
      "ж д",
      "со зда",
      "с лы",
      "н стве",
      "то й",
      "ки й",
      "у виде",
      "в ля",
      "ю т",
      "ро й",
      "зве з",
      "ж да",
      "тре н",
      "у лы",
      "в дох",
      "че ло",
      "до м",
      "ду х",
      "то т",
      "све том",
      "в ра",
      "но сти",
      "до й",
      "же ла",
      "в ле",
      "об ла",
      "бо й",
      "ны ми",
      "зна л",
      "е м",
      "бу д",
      "не м",
      "пу ть",
      "п ла",
      "ве се",
      "т али",
      "ц ы",
      "ми на",
      "нно е",
      "вре мя",
      "и мени",
      "ве тер",
      "ми г",
      "хо м",
      "го во",
      "сол нце",
      "сво ей",
      "бе ре",
      "ну лся",
      "бы ли",
      "го ре",
      "на д",
      "све р",
      "от кры",
      "улы б",
      "све ти",
      "в друг",
      "п ло",
      "б ро",
      "ш ла",
      "ща я",
      "по ня",
      "ду ши",
      "за ме",
      "кру г",
      "де нь",
      "ж ду",
      "ж но",
      "те ря",
      "» .",
      "но вы",
      "не ч",
      "мг нове",
      "я р",
      "и сто",
      "се бе",
      "у трен",
      "ду шу",
      "ду ша",
      "таи нстве",
      "ска з",
      "буд то",
      "ж де",
      "д ля",
      "о ст",
      "в ала",
      "по ло",
      "ет ся",
      "м ни",
      "во круг",
      "это т",
      "све та",
      "м ра",
      "чувст во",
      "да я",
      "ме ло",
      "те м",
      "ре ц",
      "те х",
      "от ве",
      "дре в",
      "ка х",
      "ки е",
      "небе с",
      "об ра",
      "ду ше",
      "чу де",
      "мо л",
      "ф е",
      "во с",
      "ки х",
      "ш ло",
      "кра со",
      "се бя",
      "не ве",
      "д ал",
      "нно го",
      "п ти",
      "ск ры",
      "юно ша",
      "де й",
      "я х",
      "радо сть",
      "с но",
      "во й",
      "о жи",
      "нны м",
      "си ла",
      "ка ми",
      "ш л",
      "муд ро",
      "все гда",
      "мело ди",
      "те нь",
      "б ла",
      "же т",
      "а р",
      "в ались",
      "е в",
      "ста рец",
      "звез ды",
      "дере вь",
      "сво бо",
      "ш ка",
      "б ли",
      "к рас",
      "ле й",
      "от ра",
      "щ их",
      "ст ви",
      "тре пе",
      "но чь",
      "оста ви",
      "ми ра",
      "в ско",
      "ш о",
      "вдох нове",
      "д але",
      "пра ви",
      "да же",
      "до ж",
      "о щу",
      "пе р",
      "по доб",
      "сво его",
      "де т",
      "ки м",
      "зо ло",
      "об раз",
      "оди но",
      "но сть",
      "т ри",
      "о со",
      "э ти",
      "ше л",
      "воз ь",
      "к лю",
      "мо г",
      "во ло",
      "то к",
      "в ла",
      "хра ни",
      "бы ть",
      "ра я",
      "мо ло",
      "си л",
      "тай ны",
      "по ки",
      "иск у",
      "я ви",
      "бла го",
      "ю ще",
      "ст ро",
      "де ла",
      "ме н",
      "т ала",
      "ну ла",
      "по э",
      "в ме",
      "об ъ",
      "ф и",
      "вско ре",
      "ск возь",
      "глу би",
      "з ла",
      "г ри",
      "б ле",
      "ви ди",
      "напол ни",
      "ме ня",
      "лю би",
      "на х",
      "су ще",
      "д али",
      "к ре",
      "ц о",
      "неве до",
      "! »",
      "радо сти",
      "наде жды",
      "ду м",
      "ст ру",
      "это м",
      "зву ч",
      "си ли",
      "звз ды",
      "е е",
      "д ни",
      "ша я",
      "то в",
      "гово ри",
      "ну в",
      "сво й",
      "ц и",
      "ка я",
      "вал ся",
      "ни ю",
      "ц у",
      "по ко",
      "о кру",
      "а на",
      "произне с",
      "печ аль",
      "спо мина",
      "произне сла",
      "зве зда",
      "увиде л",
      "ющи й",
      "о ку",
      "х ва",
      "но ви",
      "оди н",
      "не ц",
      "ти ши",
      "му зы",
      "ры й",
      "бо ль",
      "которы е",
      "че м",
      "мо жет",
      "по р",
      "пере д",
      "са ми",
      "нно м",
      "цве ты",
      "вер ну",
      "исто ри",
      "ми ре",
      "со бой",
      "де р",
      "глаза х",
      "ле т",
      "по ля",
      "а н",
      "ю тся",
      "о р",
      "пе с",
      "которы й",
      "с вя",
      "иск ал",
      "сме х",
      "ле г",
      "чело ве",
      "за б",
      "де ву",
      "каждо е",
      "вре мени",
      "я ми",
      "голо с",
      "ня я",
      "х у",
      "го р",
      "ро в",
      "н с",
      "по нима",
      "вет ра",
      "з он",
      "кажды м",
      "ска за",
      "г ре",
      "ве с",
      "з де",
      "з ло",
      "е сли",
      "ст ву",
      "т ру",
      "? »",
      "ты е",
      "весе н",
      "стран ник",
      "иск ре",
      "пе рь",
      "ст али",
      "приро ды",
      "ющи е",
      "судь бы",
      "та м",
      "мы й",
      "поло н",
      "у тра",
      "воз дух",
      "не му",
      "вши й",
      "хо л",
      "про бу",
      "мы е",
      "но чи",
      "гори зон",
      "счасть я",
      "свет лы",
      "ни ка",
      "ту ма",
      "неж но",
      "и ска",
      "мо гу",
      "подоб но",
      "ско й",
      "каз алось",
      "за га",
      "лю дей",
      "ти ла",
      "д ра",
      "са м",
      "вы х",
      "те ли",
      "не види",
      "ша г",
      "г р",
      "ста р",
      "пу т",
      "зде сь",
      "каждо м",
      "во спомина",
      "са мо",
      "м но",
      "чувст ва",
      "не т",
      "вы со",
      "н ца",
      "же н",
      "на й",
      "иску с",
      "пре крас",
      "об и",
      "че р",
      "по т",
      "до ро",
      "ка р",
      "све те",
      "не е",
      "ль я",
      "сле д",
      "ство м",
      "за ка",
      "та я",
      "гри гори",
      "и ме",
      "бу ду",
      "у м",
      "ана ста",
      "си м",
      "про шло",
      "вы е",
      "дол ж",
      "ма я",
      "свои м",
      "те перь",
      "щи е",
      "ти я",
      "о бы",
      "по до",
      "чувство вал",
      "сол неч",
      "о г",
      "ли к",
      "с л",
      "ния х",
      "вме сте",
      "лу на",
      "ва ет",
      "ре ки",
      "мо жно",
      "доб ро",
      "по теря",
      "с про",
      "при з",
      "со би",
      "те бе",
      "лу чи",
      "ва сили",
      "з ь",
      "объ я",
      "п ря",
      "не с",
      "стре ми",
      "на по",
      "кото ро",
      "у же",
      "о зе",
      "шеп тали",
      "щи й",
      "то го",
      "пол ни",
      "дере в",
      "зем лю",
      "н ную",
      "поня л",
      "н ю",
      "судь ба",
      "вая сь",
      "ш ли",
      "чуде с",
      "сно ва",
      "ме жду",
      "мы сли",
      "ти хо",
      "бе р",
      "ис че",
      "и м",
      "ро ва",
      "по гру",
      "стари к",
      "де ли",
      "во м",
      "слы ш",
      "ст ало",
      "сме ло",
      "за бо",
      "му дре",
      "лю ди",
      "зе ле",
      "соб ра",
      "звз д",
      "при шла",
      "щ его",
      "по ка",
      "цве та",
      "нач ал",
      "пу сти",
      "ск ра",
      "у го",
      "ро ма",
      "ну ть",
      "вши е",
      "ожи да",
      "деревь ев",
      "одна ко",
      "про сты",
      "произ нс",
      "ды ха",
      "у тро",
      "са ма",
      "за ви",
      "ю ный",
      "же ние",
      "воз вра",
      "в ну",
      "та нце",
      "ну лась",
      "григори й",
      "ху дож",
      "чело вече",
      "в спо",
      "ле су",
      "м ле",
      "ня л",
      "по ве",
      "ре ка",
      "те ше",
      "ча с",
      "ру ки",
      "печ али",
      "го м",
      "ни ца",
      "в ало",
      "ск у",
      "раз и",
      "м ного",
      "хо ло",
      "у ди",
      "е шь",
      "зву ки",
      "че й",
      "ре з",
      "бо га",
      "те пло",
      "ше й",
      "это й",
      "ст я",
      "га р",
      "спо соб",
      "пол ные",
      "остави в",
      "тре во",
      "да р",
      "глу бо",
      "к ло",
      "мгнове ние",
      "вз я",
      "к ли",
      "б ре",
      "си лу",
      "во ды",
      "бе скра",
      "вре ме",
      "бескра й",
      "б ра",
      "к ри",
      "де л",
      "с мы",
      "з во",
      "не до",
      "го ро",
      "у ме",
      "ко н",
      "во е",
      "и н",
      "ча я",
      "небе са",
      "сол нца",
      "боль ше",
      "о хва",
      "от прави",
      "ма сте",
      "со кро",
      "ар те",
      "го род",
      "анаста сия",
      "пы т",
      "з вали",
      "ре аль",
      "смо тре",
      "бе ско",
      "клю че",
      "дол го",
      "цве ток",
      "в алась",
      "жи ла",
      "ст ала",
      "васили й",
      "на с",
      "ка м",
      "во ро",
      "те лей",
      "беско неч",
      "ко е",
      "взгля д",
      "ко с",
      "на ко",
      "кар ти",
      "ма ги",
      "на ми",
      "те бя",
      "ф а",
      "но си",
      "сла в",
      "вы й",
      "од но",
      "стра х",
      "со еди",
      "ски х",
      "зага до",
      "лу ч",
      "г ро",
      "мо м",
      "ты х",
      "д аль",
      "мы х",
      "ве ри",
      "за дум",
      "по кры",
      "вспо мни",
      "которы х",
      "ме р",
      "нны ми",
      "зем ли",
      "встре ти",
      "ве дь",
      "у чи",
      "ю щая",
      "с пе",
      "поэ т",
      "без д",
      "деву шка",
      "д ва",
      "глаза ми",
      "по зна",
      "д ли",
      "о к",
      "ни ми",
      "пу ти",
      "сте й",
      "напол ня",
      "у ста",
      "хо дя",
      "по ро",
      "ко го",
      "бу дет",
      "нно сти",
      "кото рой",
      "о де",
      "из ве",
      "ко ле",
      "сту пи",
      "вля я",
      "рас ска",
      "гар мо",
      "отве тил",
      "нако нец",
      "о се",
      "ди л",
      "па сту",
      "сло в",
      "ния ми",
      "дру ж",
      "свер ка",
      "но к",
      "во ск",
      "про долж",
      "чу до",
      "да ть",
      "мя те",
      "по мни",
      "со в",
      "челове к",
      "на м",
      "у кры",
      "холо д",
      "кра ю",
      "че стве",
      "шеп тал",
      "т м",
      "мо мен",
      "неж ные",
      "ск ло",
      "н м",
      "музы ка",
      "да ми",
      "тво ре",
      "стре мле",
      "слы ша",
      "воз ник",
      "мра ч",
      "слу ша",
      "со м",
      "про н",
      "ис пы",
      "ты й",
      "д ро",
      "свер к",
      "трепе т",
      "ру ю",
      "ли цо",
      "приро да",
      "каж дая",
      "приз ра",
      "сердца х",
      "соб р",
      "те ле",
      "без мол",
      "ж у",
      "ми й",
      "все х",
      "до р",
      "раз д",
      "на стоя",
      "ста нови",
      "вдохнове ния",
      "ю щих",
      "ро ди",
      "пре да",
      "нач али",
      "в шая",
      "ж дой",
      "ни ки",
      "гля дя",
      "пес ни",
      "зе р",
      "я с",
      "сле ду",
      "сть я",
      "лы х",
      "ве ко",
      "вер нулся",
      "искре н",
      "е сть",
      "реши л",
      "с ви",
      "сер де",
      "загадо ч",
      "на ходи",
      "суще ство",
      "осо зна",
      "си лы",
      "го то",
      "па мя",
      "ло й",
      "стра ха",
      "сто ро",
      "мудро сть",
      "напо мина",
      "а рома",
      "д ней",
      "по чувствовал",
      "ма ри",
      "» ,",
      "это го",
      "ду ш",
      "вдохнове ние",
      "ощу тил",
      "же ство",
      "просто ра",
      "уго л",
      "мя г",
      "о го",
      "д ня",
      "рас цве",
      "м але",
      "стра да",
      "ли ца",
      "се ле",
      "со н",
      "дру га",
      "пу сть",
      "сла д",
      "но ч",
      "зна я",
      "ла я",
      "да ри",
      "ки ми",
      "не зна",
      "вы м",
      "воз можно",
      "ни ть",
      "за пе",
      "лу ча",
      "меч тал",
      "и гр",
      "бере гу",
      "ти в",
      "ги е",
      "мале нь",
      "зе л",
      "в нима",
      "заме тил",
      "по след",
      "вз о",
      "го й",
      "ло м",
      "о но",
      "соби р",
      "и ли",
      "ще й",
      "утрен ний",
      "сокро ви",
      "му ю",
      "вз дох",
      "вши х",
      "зем ле",
      "ко л",
      "про би",
      "пи са",
      "пти ца",
      "жи ть",
      "нно сть",
      "неж ный",
      "ти хи",
      "з ре",
      "д ви",
      "п лы",
      "радо стью",
      "бога т",
      "ж ал",
      "лу га",
      "тель но",
      "в не",
      "тя ну",
      "иск ра",
      "наде жд",
      "к ни",
      "т р",
      "ца р",
      "чуде са",
      "к ла",
      "л г",
      "сти хи",
      "т но",
      "ш пот",
      "на всегда",
      "ко р",
      "обла ка",
      "до сти",
      "о м",
      "юще й",
      "мра к",
      "ры е",
      "мечта х",
      "тя же",
      "во го",
      "соб стве",
      "по ры",
      "под ня",
      "мудро сти",
      "с пле",
      "ра ду",
      "мо я",
      "от вет",
      "о ча",
      "ч ал",
      "ш ки",
      "но ся",
      "юще е",
      "спро сил",
      "ву ю",
      "ка п",
      "за полни",
      "в алось",
      "те ля",
      "наде жда",
      "да х",
      "небо сво",
      "по рой",
      "ко ло",
      "мо р",
      "ду ю",
      "с па",
      "яви лась",
      "в ся",
      "ски е",
      "деревь я",
      "радо ст",
      "б лю",
      "испы та",
      "ру ках",
      "заме р",
      "воздух е",
      "теле м",
      "ви тель",
      "мы с",
      "най ти",
      "ру чь",
      "при ходи",
      "ми мо",
      "арте мий",
      "мы ш",
      "о бо",
      "улыб кой",
      "ге н",
      "у зна",
      "ну вшись",
      "сле до",
      "све ту",
      "ря дом",
      "при шл",
      "и мя",
      "наде ждой",
      "ост ался",
      "расска зы",
      "гра ни",
      "воск лик",
      "о све",
      "щу ю",
      "не на",
      "ра бо",
      "во про",
      "ого нь",
      "во д",
      "ва ться",
      "про стран",
      "ко ро",
      "вели честве",
      "пре вра",
      "иск ри",
      "ющи м",
      "отве тила",
      "худож ник",
      "по мо",
      "стар ца",
      "о каз",
      "са мой",
      "одино кий",
      "зер к",
      "мы м",
      "э ту",
      "сим ф",
      "бу р",
      "х от",
      "чи на",
      "масте р",
      "во сто",
      "ши х",
      "о бе",
      "к ля",
      "се ре",
      "цве ту",
      "че рез",
      "вер ши",
      "ча т",
      "жела ние",
      "новы м",
      "по зво",
      "обре л",
      "при ключе",
      "по кой",
      "ле ген",
      "ста ть",
      "цве т",
      "р т",
      "встре тил",
      "бере га",
      "и гра",
      "волшеб ство",
      "вече ра",
      "мечта ний",
      "вол ны",
      "сказ ал",
      "за ве",
      "пут ник",
      "ним ал",
      "з у",
      "не что",
      "каж дую",
      "воспомина ния",
      "ме сто",
      "ш его",
      "ле е",
      "озе ра",
      "г не",
      "ку з",
      "ско ль",
      "осо знал",
      "ни ком",
      "ста рый",
      "жи в",
      "заб лу",
      "мелоди я",
      "истори и",
      "ч ка",
      "бы тия",
      "пу теше",
      "ча й",
      "еди не",
      "ще е",
      "ти х",
      "ры х",
      "веч но",
      "ча сто",
      "ще м",
      "тума н",
      "\" .",
      "сте па",
      "ост алась",
      "об ня",
      "новы е",
      "пти цы",
      "о за",
      "мо е",
      "не у",
      "то н",
      "еди н",
      "за щи"
    ]
  }
}